[PAD]
[unused1]
[unused2]
[unused3]
[unused4]
[unused5]
[unused6]
[unused7]
[unused8]
[unused9]
[unused10]
[unused11]
[unused12]
[unused13]
[unused14]
[unused15]
[unused16]
[unused17]
[unused18]
[unused19]
[unused20]
[unused21]
[unused22]
[unused23]
[unused24]
[unused25]
[unused26]
[unused27]
[unused28]
[unused29]
[unused30]
[unused31]
[unused32]
[unused33]
[unused34]
[unused35]
[unused36]
[unused37]
[unused38]
[unused39]
[unused40]
[unused41]
[unused42]
[unused43]
[unused44]
[unused45]
[unused46]
[unused47]
[unused48]
[unused49]
[unused50]
[unused51]
[unused52]
[unused53]
[unused54]
[unused55]
[unused56]
[unused57]
[unused58]
[unused59]
[unused60]
[unused61]
[unused62]
[unused63]
[unused64]
[unused65]
[unused66]
[unused67]
[unused68]
[unused69]
[unused70]
[unused71]
[unused72]
[unused73]
[unused74]
[unused75]
[unused76]
[unused77]
[unused78]
[unused79]
[unused80]
[unused81]
[unused82]
[unused83]
[unused84]
[unused85]
[unused86]
[unused87]
[unused88]
[unused89]
[unused90]
[unused91]
[unused92]
[unused93]
[unused94]
[unused95]
[unused96]
[unused97]
[unused98]
[unused99]
[UNK]
[CLS]
[SEP]
[MASK]
<S>
<T>
!
"
#
$
%
&
'
(
)
*
+
,
-
.
/
0
1
2
3
4
5
6
7
8
9
:
;
<
=
>
?
@
[
\
]
^
_
a
b
c
d
e
f
g
h
i
j
k
l
m
n
o
p
q
r
s
t
u
v
w
x
y
z
{
|
}
~
£
¤
¥
§
©
«
®
°
±
²
³
µ
·
¹
º
»
¼
×
ß
æ
÷
ø
đ
ŋ
ɔ
ə
ɡ
ʰ
ˇ
ˈ
ˊ
ˋ
ˍ
ː
˙
˚
ˢ
α
β
γ
δ
ε
η
θ
ι
κ
λ
μ
ν
ο
π
ρ
ς
σ
τ
υ
φ
χ
ψ
ω
а
б
в
г
д
е
ж
з
и
к
л
м
н
о
п
р
с
т
у
ф
х
ц
ч
ш
ы
ь
я
і
ا
ب
ة
ت
د
ر
س
ع
ل
م
ن
ه
و
ي
۩
ก
ง
น
ม
ย
ร
อ
า
เ
๑
་
ღ
ᄀ
ᄁ
ᄂ
ᄃ
ᄅ
ᄆ
ᄇ
ᄈ
ᄉ
ᄋ
ᄌ
ᄎ
ᄏ
ᄐ
ᄑ
ᄒ
ᅡ
ᅢ
ᅣ
ᅥ
ᅦ
ᅧ
ᅨ
ᅩ
ᅪ
ᅬ
ᅭ
ᅮ
ᅯ
ᅲ
ᅳ
ᅴ
ᅵ
ᆨ
ᆫ
ᆯ
ᆷ
ᆸ
ᆺ
ᆻ
ᆼ
ᗜ
ᵃ
ᵉ
ᵍ
ᵏ
ᵐ
ᵒ
ᵘ
‖
„
†
•
‥
‧
 
‰
′
″
‹
›
※
‿
⁄
ⁱ
⁺
ⁿ
₁
₂
₃
₄
€
℃
№
™
ⅰ
ⅱ
ⅲ
ⅳ
ⅴ
←
↑
→
↓
↔
↗
↘
⇒
∀
−
∕
∙
√
∞
∟
∠
∣
∥
∩
∮
∶
∼
∽
≈
≒
≡
≤
≥
≦
≧
≪
≫
⊙
⋅
⋈
⋯
⌒
①
②
③
④
⑤
⑥
⑦
⑧
⑨
⑩
⑴
⑵
⑶
⑷
⑸
⒈
⒉
⒊
⒋
ⓒ
ⓔ
ⓘ
─
━
│
┃
┅
┆
┊
┌
└
├
┣
═
║
╚
╞
╠
╭
╮
╯
╰
╱
╳
▂
▃
▅
▇
█
▉
▋
▌
▍
▎
■
□
▪
▫
▬
▲
△
▶
►
▼
▽
◆
◇
○
◎
●
◕
◠
◢
◤
☀
★
☆
☕
☞
☺
☼
♀
♂
♠
♡
♣
♥
♦
♪
♫
♬
✈
✔
✕
✖
✦
✨
✪
✰
✿
❀
❤
➜
➤
⦿
、
。
〃
々
〇
〈
〉
《
》
「
」
『
』
【
】
〓
〔
〕
〖
〗
〜
〝
〞
ぁ
あ
ぃ
い
う
ぇ
え
お
か
き
く
け
こ
さ
し
す
せ
そ
た
ち
っ
つ
て
と
な
に
ぬ
ね
の
は
ひ
ふ
へ
ほ
ま
み
む
め
も
ゃ
や
ゅ
ゆ
ょ
よ
ら
り
る
れ
ろ
わ
を
ん
゜
ゝ
ァ
ア
ィ
イ
ゥ
ウ
ェ
エ
ォ
オ
カ
キ
ク
ケ
コ
サ
シ
ス
セ
ソ
タ
チ
ッ
ツ
テ
ト
ナ
ニ
ヌ
ネ
ノ
ハ
ヒ
フ
ヘ
ホ
マ
ミ
ム
メ
モ
ャ
ヤ
ュ
ユ
ョ
ヨ
ラ
リ
ル
レ
ロ
ワ
ヲ
ン
ヶ
・
ー
ヽ
ㄅ
ㄆ
ㄇ
ㄉ
ㄋ
ㄌ
ㄍ
ㄎ
ㄏ
ㄒ
ㄚ
ㄛ
ㄞ
ㄟ
ㄢ
ㄤ
ㄥ
ㄧ
ㄨ
ㆍ
㈦
㊣
㎡
㗎
一
丁
七
万
丈
三
上
下
不
与
丐
丑
专
且
丕
世
丘
丙
业
丛
东
丝
丞
丟
両
丢
两
严
並
丧
丨
个
丫
中
丰
串
临
丶
丸
丹
为
主
丼
丽
举
丿
乂
乃
久
么
义
之
乌
乍
乎
乏
乐
乒
乓
乔
乖
乗
乘
乙
乜
九
乞
也
习
乡
书
乩
买
乱
乳
乾
亀
亂
了
予
争
事
二
于
亏
云
互
五
井
亘
亙
亚
些
亜
亞
亟
亡
亢
交
亥
亦
产
亨
亩
享
京
亭
亮
亲
亳
亵
人
亿
什
仁
仃
仄
仅
仆
仇
今
介
仍
从
仏
仑
仓
仔
仕
他
仗
付
仙
仝
仞
仟
代
令
以
仨
仪
们
仮
仰
仲
件
价
任
份
仿
企
伉
伊
伍
伎
伏
伐
休
伕
众
优
伙
会
伝
伞
伟
传
伢
伤
伦
伪
伫
伯
估
伴
伶
伸
伺
似
伽
佃
但
佇
佈
位
低
住
佐
佑
体
佔
何
佗
佘
余
佚
佛
作
佝
佞
佟
你
佢
佣
佤
佥
佩
佬
佯
佰
佳
併
佶
佻
佼
使
侃
侄
來
侈
例
侍
侏
侑
侖
侗
供
依
侠
価
侣
侥
侦
侧
侨
侬
侮
侯
侵
侶
侷
便
係
促
俄
俊
俎
俏
俐
俑
俗
俘
俚
保
俞
俟
俠
信
俨
俩
俪
俬
俭
修
俯
俱
俳
俸
俺
俾
倆
倉
個
倌
倍
倏
們
倒
倔
倖
倘
候
倚
倜
借
倡
値
倦
倩
倪
倫
倬
倭
倶
债
值
倾
偃
假
偈
偉
偌
偎
偏
偕
做
停
健
側
偵
偶
偷
偻
偽
偿
傀
傅
傍
傑
傘
備
傚
傢
傣
傥
储
傩
催
傭
傲
傳
債
傷
傻
傾
僅
働
像
僑
僕
僖
僚
僥
僧
僭
僮
僱
僵
價
僻
儀
儂
億
儆
儉
儋
儒
儕
儘
償
儡
優
儲
儷
儼
儿
兀
允
元
兄
充
兆
兇
先
光
克
兌
免
児
兑
兒
兔
兖
党
兜
兢
入
內
全
兩
八
公
六
兮
兰
共
兲
关
兴
兵
其
具
典
兹
养
兼
兽
冀
内
円
冇
冈
冉
冊
册
再
冏
冒
冕
冗
写
军
农
冠
冢
冤
冥
冨
冪
冬
冯
冰
冲
决
况
冶
冷
冻
冼
冽
冾
净
凄
准
凇
凈
凉
凋
凌
凍
减
凑
凛
凜
凝
几
凡
凤
処
凪
凭
凯
凰
凱
凳
凶
凸
凹
出
击
函
凿
刀
刁
刃
分
切
刈
刊
刍
刎
刑
划
列
刘
则
刚
创
初
删
判
別
刨
利
刪
别
刮
到
制
刷
券
刹
刺
刻
刽
剁
剂
剃
則
剉
削
剋
剌
前
剎
剐
剑
剔
剖
剛
剜
剝
剣
剤
剥
剧
剩
剪
副
割
創
剷
剽
剿
劃
劇
劈
劉
劊
劍
劏
劑
力
劝
办
功
加
务
劣
动
助
努
劫
劭
励
劲
劳
労
劵
効
劾
势
勁
勃
勇
勉
勋
勐
勒
動
勖
勘
務
勛
勝
勞
募
勢
勤
勧
勳
勵
勸
勺
勻
勾
勿
匀
包
匆
匈
匍
匐
匕
化
北
匙
匝
匠
匡
匣
匪
匮
匯
匱
匹
区
医
匾
匿
區
十
千
卅
升
午
卉
半
卍
华
协
卑
卒
卓
協
单
卖
南
単
博
卜
卞
卟
占
卡
卢
卤
卦
卧
卫
卮
卯
印
危
即
却
卵
卷
卸
卻
卿
厂
厄
厅
历
厉
压
厌
厕
厘
厚
厝
原
厢
厥
厦
厨
厩
厭
厮
厲
厳
去
县
叁
参
參
又
叉
及
友
双
反
収
发
叔
取
受
变
叙
叛
叟
叠
叡
叢
口
古
句
另
叨
叩
只
叫
召
叭
叮
可
台
叱
史
右
叵
叶
号
司
叹
叻
叼
叽
吁
吃
各
吆
合
吉
吊
吋
同
名
后
吏
吐
向
吒
吓
吕
吖
吗
君
吝
吞
吟
吠
吡
否
吧
吨
吩
含
听
吭
吮
启
吱
吳
吴
吵
吶
吸
吹
吻
吼
吽
吾
呀
呂
呃
呆
呈
告
呋
呎
呐
呓
呕
呗
员
呛
呜
呢
呤
呦
周
呱
呲
味
呵
呷
呸
呻
呼
命
咀
咁
咂
咄
咆
咋
和
咎
咏
咐
咒
咔
咕
咖
咗
咘
咙
咚
咛
咣
咤
咦
咧
咨
咩
咪
咫
咬
咭
咯
咱
咲
咳
咸
咻
咽
咿
哀
品
哂
哄
哆
哇
哈
哉
哋
哌
响
哎
哏
哐
哑
哒
哔
哗
哟
員
哥
哦
哧
哨
哩
哪
哭
哮
哲
哺
哼
哽
唁
唄
唆
唇
唉
唏
唐
唑
唔
唠
唤
唧
唬
售
唯
唰
唱
唳
唷
唸
唾
啃
啄
商
啉
啊
問
啓
啕
啖
啜
啞
啟
啡
啤
啥
啦
啧
啪
啫
啬
啮
啰
啱
啲
啵
啶
啷
啸
啻
啼
啾
喀
喂
喃
善
喆
喇
喉
喊
喋
喎
喏
喔
喘
喙
喚
喜
喝
喟
喧
喪
喫
喬
單
喰
喱
喲
喳
喵
営
喷
喹
喺
喻
喽
嗅
嗆
嗇
嗎
嗑
嗒
嗓
嗔
嗖
嗚
嗜
嗝
嗟
嗡
嗣
嗤
嗦
嗨
嗪
嗬
嗯
嗰
嗲
嗳
嗶
嗷
嗽
嘀
嘅
嘆
嘈
嘉
嘌
嘍
嘎
嘔
嘖
嘗
嘘
嘚
嘛
嘜
嘞
嘟
嘢
嘣
嘤
嘧
嘩
嘭
嘮
嘯
嘰
嘱
嘲
嘴
嘶
嘸
嘹
嘻
嘿
噁
噌
噎
噓
噔
噗
噙
噜
噠
噢
噤
器
噩
噪
噬
噱
噴
噶
噸
噹
噻
噼
嚀
嚇
嚎
嚏
嚐
嚓
嚕
嚟
嚣
嚥
嚨
嚮
嚴
嚷
嚼
囂
囉
囊
囍
囑
囔
囗
囚
四
囝
回
囟
因
囡
团
団
囤
囧
囪
囫
园
困
囱
囲
図
围
囹
固
国
图
囿
圃
圄
圆
圈
國
圍
圏
園
圓
圖
團
圜
土
圣
圧
在
圩
圭
地
圳
场
圻
圾
址
坂
均
坊
坍
坎
坏
坐
坑
块
坚
坛
坝
坞
坟
坠
坡
坤
坦
坨
坪
坯
坳
坵
坷
垂
垃
垄
型
垒
垚
垛
垠
垢
垣
垦
垩
垫
垭
垮
垵
埂
埃
埋
城
埔
埕
埗
域
埠
埤
埵
執
埸
培
基
埼
堀
堂
堃
堅
堆
堇
堑
堕
堙
堡
堤
堪
堯
堰
報
場
堵
堺
堿
塊
塌
塑
塔
塗
塘
塚
塞
塢
塩
填
塬
塭
塵
塾
墀
境
墅
墉
墊
墒
墓
増
墘
墙
墜
增
墟
墨
墩
墮
墳
墻
墾
壁
壅
壆
壇
壊
壑
壓
壕
壘
壞
壟
壢
壤
壩
士
壬
壮
壯
声
売
壳
壶
壹
壺
壽
处
备
変
复
夏
夔
夕
外
夙
多
夜
够
夠
夢
夥
大
天
太
夫
夭
央
夯
失
头
夷
夸
夹
夺
夾
奂
奄
奇
奈
奉
奋
奎
奏
奐
契
奔
奕
奖
套
奘
奚
奠
奢
奥
奧
奪
奬
奮
女
奴
奶
奸
她
好
如
妃
妄
妆
妇
妈
妊
妍
妒
妓
妖
妘
妙
妝
妞
妣
妤
妥
妨
妩
妪
妮
妲
妳
妹
妻
妾
姆
姉
姊
始
姍
姐
姑
姒
姓
委
姗
姚
姜
姝
姣
姥
姦
姨
姪
姫
姬
姹
姻
姿
威
娃
娄
娅
娆
娇
娉
娑
娓
娘
娛
娜
娟
娠
娣
娥
娩
娱
娲
娴
娶
娼
婀
婁
婆
婉
婊
婕
婚
婢
婦
婧
婪
婭
婴
婵
婶
婷
婺
婿
媒
媚
媛
媞
媧
媲
媳
媽
媾
嫁
嫂
嫉
嫌
嫑
嫔
嫖
嫘
嫚
嫡
嫣
嫦
嫩
嫲
嫵
嫻
嬅
嬉
嬌
嬗
嬛
嬢
嬤
嬪
嬰
嬴
嬷
嬸
嬿
孀
孃
子
孑
孔
孕
孖
字
存
孙
孚
孛
孜
孝
孟
孢
季
孤
学
孩
孪
孫
孬
孰
孱
孳
孵
學
孺
孽
孿
宁
它
宅
宇
守
安
宋
完
宏
宓
宕
宗
官
宙
定
宛
宜
宝
实
実
宠
审
客
宣
室
宥
宦
宪
宫
宮
宰
害
宴
宵
家
宸
容
宽
宾
宿
寂
寄
寅
密
寇
富
寐
寒
寓
寛
寝
寞
察
寡
寢
寥
實
寧
寨
審
寫
寬
寮
寰
寵
寶
寸
对
寺
寻
导
対
寿
封
専
射
将
將
專
尉
尊
尋
對
導
小
少
尔
尕
尖
尘
尚
尝
尤
尧
尬
就
尴
尷
尸
尹
尺
尻
尼
尽
尾
尿
局
屁
层
屄
居
屆
屈
屉
届
屋
屌
屍
屎
屏
屐
屑
展
屜
属
屠
屡
屢
層
履
屬
屯
山
屹
屿
岀
岁
岂
岌
岐
岑
岔
岖
岗
岘
岙
岚
岛
岡
岩
岫
岬
岭
岱
岳
岷
岸
峇
峋
峒
峙
峡
峤
峥
峦
峨
峪
峭
峯
峰
峴
島
峻
峽
崁
崂
崆
崇
崎
崑
崔
崖
崗
崙
崛
崧
崩
崭
崴
崽
嵇
嵊
嵋
嵌
嵐
嵘
嵩
嵬
嵯
嶂
嶄
嶇
嶋
嶙
嶺
嶼
嶽
巅
巍
巒
巔
巖
川
州
巡
巢
工
左
巧
巨
巩
巫
差
己
已
巳
巴
巷
巻
巽
巾
巿
币
市
布
帅
帆
师
希
帐
帑
帕
帖
帘
帚
帛
帜
帝
帥
带
帧
師
席
帮
帯
帰
帳
帶
帷
常
帼
帽
幀
幂
幄
幅
幌
幔
幕
幟
幡
幢
幣
幫
干
平
年
并
幸
幹
幺
幻
幼
幽
幾
广
庁
広
庄
庆
庇
床
序
庐
库
应
底
庖
店
庙
庚
府
庞
废
庠
度
座
庫
庭
庵
庶
康
庸
庹
庾
廁
廂
廃
廈
廉
廊
廓
廖
廚
廝
廟
廠
廢
廣
廬
廳
延
廷
建
廿
开
弁
异
弃
弄
弈
弊
弋
式
弑
弒
弓
弔
引
弗
弘
弛
弟
张
弥
弦
弧
弩
弭
弯
弱
張
強
弹
强
弼
弾
彅
彆
彈
彌
彎
归
当
录
彗
彙
彝
形
彤
彥
彦
彧
彩
彪
彫
彬
彭
彰
影
彷
役
彻
彼
彿
往
征
径
待
徇
很
徉
徊
律
後
徐
徑
徒
従
徕
得
徘
徙
徜
從
徠
御
徨
復
循
徬
微
徳
徴
徵
德
徹
徼
徽
心
必
忆
忌
忍
忏
忐
忑
忒
忖
志
忘
忙
応
忠
忡
忤
忧
忪
快
忱
念
忻
忽
忿
怀
态
怂
怅
怆
怎
怏
怒
怔
怕
怖
怙
怜
思
怠
怡
急
怦
性
怨
怪
怯
怵
总
怼
恁
恃
恆
恋
恍
恐
恒
恕
恙
恚
恢
恣
恤
恥
恨
恩
恪
恫
恬
恭
息
恰
恳
恵
恶
恸
恺
恻
恼
恿
悄
悅
悉
悌
悍
悔
悖
悚
悟
悠
患
悦
您
悩
悪
悬
悯
悱
悲
悴
悵
悶
悸
悻
悼
悽
情
惆
惇
惊
惋
惑
惕
惘
惚
惜
惟
惠
惡
惦
惧
惨
惩
惫
惬
惭
惮
惯
惰
惱
想
惴
惶
惹
惺
愁
愆
愈
愉
愍
意
愕
愚
愛
愜
感
愣
愤
愧
愫
愷
愿
慄
慈
態
慌
慎
慑
慕
慘
慚
慟
慢
慣
慧
慨
慫
慮
慰
慳
慵
慶
慷
慾
憂
憊
憋
憎
憐
憑
憔
憚
憤
憧
憨
憩
憫
憬
憲
憶
憾
懂
懇
懈
應
懊
懋
懑
懒
懦
懲
懵
懶
懷
懸
懺
懼
懾
懿
戀
戈
戊
戌
戍
戎
戏
成
我
戒
戕
或
战
戚
戛
戟
戡
戦
截
戬
戮
戰
戲
戳
戴
戶
户
戸
戻
戾
房
所
扁
扇
扈
扉
手
才
扎
扑
扒
打
扔
払
托
扛
扣
扦
执
扩
扪
扫
扬
扭
扮
扯
扰
扱
扳
扶
批
扼
找
承
技
抄
抉
把
抑
抒
抓
投
抖
抗
折
抚
抛
抜
択
抟
抠
抡
抢
护
报
抨
披
抬
抱
抵
抹
押
抽
抿
拂
拄
担
拆
拇
拈
拉
拋
拌
拍
拎
拐
拒
拓
拔
拖
拗
拘
拙
拚
招
拜
拟
拡
拢
拣
拥
拦
拧
拨
择
括
拭
拮
拯
拱
拳
拴
拷
拼
拽
拾
拿
持
挂
指
挈
按
挎
挑
挖
挙
挚
挛
挝
挞
挟
挠
挡
挣
挤
挥
挨
挪
挫
振
挲
挹
挺
挽
挾
捂
捅
捆
捉
捋
捌
捍
捎
捏
捐
捕
捞
损
捡
换
捣
捧
捨
捩
据
捱
捲
捶
捷
捺
捻
掀
掂
掃
掇
授
掉
掌
掏
掐
排
掖
掘
掙
掛
掠
採
探
掣
接
控
推
掩
措
掬
掰
掲
掳
掴
掷
掸
掺
揀
揃
揄
揆
揉
揍
描
提
插
揖
揚
換
握
揣
揩
揪
揭
揮
援
揶
揸
揹
揽
搀
搁
搂
搅
損
搏
搐
搓
搔
搖
搗
搜
搞
搡
搪
搬
搭
搵
搶
携
搽
摀
摁
摄
摆
摇
摈
摊
摒
摔
摘
摞
摟
摧
摩
摯
摳
摸
摹
摺
摻
撂
撃
撅
撇
撈
撐
撑
撒
撓
撕
撚
撞
撤
撥
撩
撫
撬
播
撮
撰
撲
撵
撷
撸
撻
撼
撿
擀
擁
擂
擄
擅
擇
擊
擋
操
擎
擒
擔
擘
據
擞
擠
擡
擢
擦
擬
擰
擱
擲
擴
擷
擺
擼
擾
攀
攏
攒
攔
攘
攙
攜
攝
攞
攢
攣
攤
攥
攪
攫
攬
支
收
攸
改
攻
放
政
故
效
敌
敍
敎
敏
救
敕
敖
敗
敘
教
敛
敝
敞
敢
散
敦
敬
数
敲
整
敵
敷
數
斂
斃
文
斋
斌
斎
斐
斑
斓
斗
料
斛
斜
斟
斡
斤
斥
斧
斩
斫
斬
断
斯
新
斷
方
於
施
旁
旃
旅
旋
旌
旎
族
旖
旗
无
既
日
旦
旧
旨
早
旬
旭
旮
旱
时
旷
旺
旻
昀
昂
昆
昇
昉
昊
昌
明
昏
易
昔
昕
昙
星
映
春
昧
昨
昭
是
昱
昴
昵
昶
昼
显
晁
時
晃
晉
晋
晌
晏
晒
晓
晔
晕
晖
晗
晚
晝
晞
晟
晤
晦
晨
晩
普
景
晰
晴
晶
晷
智
晾
暂
暄
暇
暈
暉
暌
暐
暑
暖
暗
暝
暢
暧
暨
暫
暮
暱
暴
暸
暹
曄
曆
曇
曉
曖
曙
曜
曝
曠
曦
曬
曰
曲
曳
更
書
曹
曼
曾
替
最
會
月
有
朋
服
朐
朔
朕
朗
望
朝
期
朦
朧
木
未
末
本
札
朮
术
朱
朴
朵
机
朽
杀
杂
权
杆
杈
杉
李
杏
材
村
杓
杖
杜
杞
束
杠
条
来
杨
杭
杯
杰
東
杳
杵
杷
杼
松
板
极
构
枇
枉
枋
析
枕
林
枚
果
枝
枢
枣
枪
枫
枭
枯
枰
枱
枳
架
枷
枸
柄
柏
某
柑
柒
染
柔
柘
柚
柜
柞
柠
柢
查
柩
柬
柯
柱
柳
柴
柵
査
柿
栀
栃
栄
栅
标
栈
栉
栋
栎
栏
树
栓
栖
栗
校
栩
株
样
核
根
格
栽
栾
桀
桁
桂
桃
桅
框
案
桉
桌
桎
桐
桑
桓
桔
桜
桠
桡
桢
档
桥
桦
桧
桨
桩
桶
桿
梁
梅
梆
梏
梓
梗
條
梟
梢
梦
梧
梨
梭
梯
械
梳
梵
梶
检
棂
棄
棉
棋
棍
棒
棕
棗
棘
棚
棟
棠
棣
棧
森
棱
棲
棵
棹
棺
椁
椅
椋
植
椎
椒
検
椪
椭
椰
椹
椽
椿
楂
楊
楓
楔
楚
楝
楞
楠
楣
楨
楫
業
楮
極
楷
楸
楹
楼
楽
概
榄
榆
榈
榉
榔
榕
榖
榛
榜
榨
榫
榭
榮
榱
榴
榷
榻
槁
槃
構
槌
槍
槎
槐
槓
様
槛
槟
槤
槭
槲
槳
槻
槽
槿
樁
樂
樊
樑
樓
標
樞
樟
模
樣
権
横
樫
樯
樱
樵
樸
樹
樺
樽
樾
橄
橇
橋
橐
橘
橙
機
橡
橢
橫
橱
橹
橼
檀
檄
檎
檐
檔
檗
檜
檢
檬
檯
檳
檸
檻
櫃
櫚
櫛
櫥
櫸
櫻
欄
權
欒
欖
欠
次
欢
欣
欧
欲
欸
欺
欽
款
歆
歇
歉
歌
歎
歐
歓
歙
歛
歡
止
正
此
步
武
歧
歩
歪
歯
歲
歳
歴
歷
歸
歹
死
歼
殁
殃
殆
殇
殉
殊
残
殒
殓
殖
殘
殞
殡
殤
殭
殯
殲
殴
段
殷
殺
殼
殿
毀
毁
毂
毅
毆
毋
母
毎
每
毒
毓
比
毕
毗
毘
毙
毛
毡
毫
毯
毽
氈
氏
氐
民
氓
气
氖
気
氙
氛
氟
氡
氢
氣
氤
氦
氧
氨
氪
氫
氮
氯
氰
氲
水
氷
永
氹
氾
汀
汁
求
汆
汇
汉
汎
汐
汕
汗
汙
汛
汝
汞
江
池
污
汤
汨
汩
汪
汰
汲
汴
汶
汹
決
汽
汾
沁
沂
沃
沅
沈
沉
沌
沏
沐
沒
沓
沖
沙
沛
沟
没
沢
沣
沥
沦
沧
沪
沫
沭
沮
沱
河
沸
油
治
沼
沽
沾
沿
況
泄
泉
泊
泌
泓
法
泗
泛
泞
泠
泡
波
泣
泥
注
泪
泫
泮
泯
泰
泱
泳
泵
泷
泸
泻
泼
泽
泾
洁
洄
洋
洒
洗
洙
洛
洞
津
洩
洪
洮
洱
洲
洵
洶
洸
洹
活
洼
洽
派
流
浃
浄
浅
浆
浇
浊
测
济
浏
浑
浒
浓
浔
浙
浚
浜
浣
浦
浩
浪
浬
浮
浯
浴
海
浸
涂
涅
涇
消
涉
涌
涎
涓
涔
涕
涙
涛
涝
涞
涟
涠
涡
涣
涤
润
涧
涨
涩
涪
涮
涯
液
涵
涸
涼
涿
淀
淄
淅
淆
淇
淋
淌
淑
淒
淖
淘
淙
淚
淞
淡
淤
淦
淨
淩
淪
淫
淬
淮
深
淳
淵
混
淹
淺
添
淼
清
済
渉
渊
渋
渍
渎
渐
渔
渗
渙
渚
減
渝
渠
渡
渣
渤
渥
渦
温
測
渭
港
渲
渴
游
渺
渾
湃
湄
湊
湍
湖
湘
湛
湟
湧
湫
湮
湯
湳
湾
湿
満
溃
溅
溉
溏
源
準
溜
溝
溟
溢
溥
溧
溪
溫
溯
溱
溴
溶
溺
溼
滁
滂
滄
滅
滇
滋
滌
滑
滓
滔
滕
滙
滚
滝
滞
滟
满
滢
滤
滥
滦
滨
滩
滬
滯
滲
滴
滷
滸
滾
滿
漁
漂
漆
漉
漏
漓
演
漕
漠
漢
漣
漩
漪
漫
漬
漯
漱
漲
漳
漸
漾
漿
潆
潇
潋
潍
潑
潔
潘
潛
潜
潞
潟
潢
潤
潦
潧
潭
潮
潰
潴
潸
潺
潼
澀
澄
澆
澈
澍
澎
澗
澜
澡
澤
澧
澱
澳
澹
激
濁
濂
濃
濑
濒
濕
濘
濛
濟
濠
濡
濤
濫
濬
濮
濯
濱
濺
濾
瀅
瀆
瀉
瀋
瀏
瀑
瀕
瀘
瀚
瀛
瀝
瀞
瀟
瀧
瀨
瀬
瀰
瀾
灌
灏
灑
灘
灝
灞
灣
火
灬
灭
灯
灰
灵
灶
灸
灼
災
灾
灿
炀
炁
炅
炉
炊
炎
炒
炔
炕
炖
炙
炜
炫
炬
炭
炮
炯
炳
炷
炸
点
為
炼
炽
烁
烂
烃
烈
烊
烏
烘
烙
烛
烟
烤
烦
烧
烨
烩
烫
烬
热
烯
烷
烹
烽
焉
焊
焕
焖
焗
焘
焙
焚
焜
無
焦
焯
焰
焱
然
焼
煅
煉
煊
煌
煎
煒
煖
煙
煜
煞
煤
煥
煦
照
煨
煩
煮
煲
煸
煽
熄
熊
熏
熒
熔
熙
熟
熠
熨
熬
熱
熵
熹
熾
燁
燃
燄
燈
燉
燊
燎
燒
燔
燕
燙
燜
營
燥
燦
燧
燭
燮
燴
燻
燼
燿
爆
爍
爐
爛
爪
爬
爭
爰
爱
爲
爵
父
爷
爸
爹
爺
爻
爽
爾
牆
片
版
牌
牍
牒
牙
牛
牝
牟
牠
牡
牢
牦
牧
物
牯
牲
牴
牵
特
牺
牽
犀
犁
犄
犊
犍
犒
犢
犧
犬
犯
状
犷
犸
犹
狀
狂
狄
狈
狎
狐
狒
狗
狙
狞
狠
狡
狩
独
狭
狮
狰
狱
狸
狹
狼
狽
猎
猕
猖
猗
猙
猛
猜
猝
猥
猩
猪
猫
猬
献
猴
猶
猷
猾
猿
獄
獅
獎
獐
獒
獗
獠
獣
獨
獭
獰
獲
獵
獷
獸
獺
獻
獼
獾
玄
率
玉
王
玑
玖
玛
玟
玠
玥
玩
玫
玮
环
现
玲
玳
玷
玺
玻
珀
珂
珅
珈
珉
珊
珍
珏
珐
珑
珙
珞
珠
珣
珥
珩
珪
班
珮
珲
珺
現
球
琅
理
琇
琉
琊
琍
琏
琐
琛
琢
琥
琦
琨
琪
琬
琮
琰
琲
琳
琴
琵
琶
琺
琼
瑀
瑁
瑄
瑋
瑕
瑗
瑙
瑚
瑛
瑜
瑞
瑟
瑠
瑣
瑤
瑩
瑪
瑯
瑰
瑶
瑾
璀
璁
璃
璇
璉
璋
璎
璐
璜
璞
璟
璧
璨
環
璽
璿
瓊
瓏
瓒
瓜
瓢
瓣
瓤
瓦
瓮
瓯
瓴
瓶
瓷
甄
甌
甕
甘
甙
甚
甜
生
產
産
甥
甦
用
甩
甫
甬
甭
甯
田
由
甲
申
电
男
甸
町
画
甾
畀
畅
界
畏
畑
畔
留
畜
畝
畢
略
畦
番
畫
異
畲
畳
畴
當
畸
畹
畿
疆
疇
疊
疏
疑
疔
疖
疗
疙
疚
疝
疟
疡
疣
疤
疥
疫
疮
疯
疱
疲
疳
疵
疸
疹
疼
疽
疾
痂
病
症
痈
痉
痊
痍
痒
痔
痕
痘
痙
痛
痞
痠
痢
痣
痤
痧
痨
痪
痫
痰
痱
痴
痹
痺
痼
痿
瘀
瘁
瘋
瘍
瘓
瘘
瘙
瘟
瘠
瘡
瘢
瘤
瘦
瘧
瘩
瘪
瘫
瘴
瘸
瘾
療
癇
癌
癒
癖
癜
癞
癡
癢
癣
癥
癫
癬
癮
癱
癲
癸
発
登
發
白
百
皂
的
皆
皇
皈
皋
皎
皑
皓
皖
皙
皚
皮
皰
皱
皴
皺
皿
盂
盃
盅
盆
盈
益
盎
盏
盐
监
盒
盔
盖
盗
盘
盛
盜
盞
盟
盡
監
盤
盥
盧
盪
目
盯
盱
盲
直
相
盹
盼
盾
省
眈
眉
看
県
眙
眞
真
眠
眦
眨
眩
眯
眶
眷
眸
眺
眼
眾
着
睁
睇
睏
睐
睑
睛
睜
睞
睡
睢
督
睥
睦
睨
睪
睫
睬
睹
睽
睾
睿
瞄
瞅
瞇
瞋
瞌
瞎
瞑
瞒
瞓
瞞
瞟
瞠
瞥
瞧
瞩
瞪
瞬
瞭
瞰
瞳
瞻
瞼
瞿
矇
矍
矗
矚
矛
矜
矢
矣
知
矩
矫
短
矮
矯
石
矶
矽
矾
矿
码
砂
砌
砍
砒
研
砖
砗
砚
砝
砣
砥
砧
砭
砰
砲
破
砷
砸
砺
砼
砾
础
硅
硐
硒
硕
硝
硫
硬
确
硯
硼
碁
碇
碉
碌
碍
碎
碑
碓
碗
碘
碚
碛
碟
碣
碧
碩
碰
碱
碳
碴
確
碼
碾
磁
磅
磊
磋
磐
磕
磚
磡
磨
磬
磯
磲
磷
磺
礁
礎
礙
礡
礦
礪
礫
礴
示
礼
社
祀
祁
祂
祇
祈
祉
祎
祐
祕
祖
祗
祚
祛
祜
祝
神
祟
祠
祢
祥
票
祭
祯
祷
祸
祺
祿
禀
禁
禄
禅
禍
禎
福
禛
禦
禧
禪
禮
禱
禹
禺
离
禽
禾
禿
秀
私
秃
秆
秉
秋
种
科
秒
秘
租
秣
秤
秦
秧
秩
秭
积
称
秸
移
秽
稀
稅
程
稍
税
稔
稗
稚
稜
稞
稟
稠
稣
種
稱
稲
稳
稷
稹
稻
稼
稽
稿
穀
穂
穆
穌
積
穎
穗
穢
穩
穫
穴
究
穷
穹
空
穿
突
窃
窄
窈
窍
窑
窒
窓
窕
窖
窗
窘
窜
窝
窟
窠
窥
窦
窨
窩
窪
窮
窯
窺
窿
竄
竅
竇
竊
立
竖
站
竜
竞
竟
章
竣
童
竭
端
競
竹
竺
竽
竿
笃
笆
笈
笋
笏
笑
笔
笙
笛
笞
笠
符
笨
第
笹
笺
笼
筆
等
筊
筋
筍
筏
筐
筑
筒
答
策
筛
筝
筠
筱
筲
筵
筷
筹
签
简
箇
箋
箍
箏
箐
箔
箕
算
箝
管
箩
箫
箭
箱
箴
箸
節
篁
範
篆
篇
築
篑
篓
篙
篝
篠
篡
篤
篩
篪
篮
篱
篷
簇
簌
簍
簡
簦
簧
簪
簫
簷
簸
簽
簾
簿
籁
籃
籌
籍
籐
籟
籠
籤
籬
籮
籲
米
类
籼
籽
粄
粉
粑
粒
粕
粗
粘
粟
粤
粥
粧
粪
粮
粱
粲
粳
粵
粹
粼
粽
精
粿
糅
糊
糍
糕
糖
糗
糙
糜
糞
糟
糠
糧
糬
糯
糰
糸
系
糾
紀
紂
約
紅
紉
紊
紋
納
紐
紓
純
紗
紘
紙
級
紛
紜
素
紡
索
紧
紫
紮
累
細
紳
紹
紺
終
絃
組
絆
経
結
絕
絞
絡
絢
給
絨
絮
統
絲
絳
絵
絶
絹
綁
綏
綑
經
継
続
綜
綠
綢
綦
綫
綬
維
綱
網
綴
綵
綸
綺
綻
綽
綾
綿
緊
緋
総
緑
緒
緘
線
緝
緞
締
緣
編
緩
緬
緯
練
緹
緻
縁
縄
縈
縛
縝
縣
縫
縮
縱
縴
縷
總
績
繁
繃
繆
繇
繋
織
繕
繚
繞
繡
繩
繪
繫
繭
繳
繹
繼
繽
纂
續
纍
纏
纓
纔
纖
纜
纠
红
纣
纤
约
级
纨
纪
纫
纬
纭
纯
纰
纱
纲
纳
纵
纶
纷
纸
纹
纺
纽
纾
线
绀
练
组
绅
细
织
终
绊
绍
绎
经
绑
绒
结
绔
绕
绘
给
绚
绛
络
绝
绞
统
绡
绢
绣
绥
绦
继
绩
绪
绫
续
绮
绯
绰
绳
维
绵
绶
绷
绸
绻
综
绽
绾
绿
缀
缄
缅
缆
缇
缈
缉
缎
缓
缔
缕
编
缘
缙
缚
缜
缝
缠
缢
缤
缥
缨
缩
缪
缭
缮
缰
缱
缴
缸
缺
缽
罂
罄
罌
罐
网
罔
罕
罗
罚
罡
罢
罩
罪
置
罰
署
罵
罷
罹
羁
羅
羈
羊
羌
美
羔
羚
羞
羟
羡
羣
群
羥
羧
羨
義
羯
羲
羸
羹
羽
羿
翁
翅
翊
翌
翎
習
翔
翘
翟
翠
翡
翦
翩
翰
翱
翳
翹
翻
翼
耀
老
考
耄
者
耆
耋
而
耍
耐
耒
耕
耗
耘
耙
耦
耨
耳
耶
耷
耸
耻
耽
耿
聂
聆
聊
聋
职
聒
联
聖
聘
聚
聞
聪
聯
聰
聲
聳
聴
聶
職
聽
聾
聿
肃
肄
肅
肆
肇
肉
肋
肌
肏
肓
肖
肘
肚
肛
肝
肠
股
肢
肤
肥
肩
肪
肮
肯
肱
育
肴
肺
肽
肾
肿
胀
胁
胃
胄
胆
背
胍
胎
胖
胚
胛
胜
胝
胞
胡
胤
胥
胧
胫
胭
胯
胰
胱
胳
胴
胶
胸
胺
能
脂
脅
脆
脇
脈
脉
脊
脍
脏
脐
脑
脓
脖
脘
脚
脛
脣
脩
脫
脯
脱
脲
脳
脸
脹
脾
腆
腈
腊
腋
腌
腎
腐
腑
腓
腔
腕
腥
腦
腩
腫
腭
腮
腰
腱
腳
腴
腸
腹
腺
腻
腼
腾
腿
膀
膈
膊
膏
膑
膘
膚
膛
膜
膝
膠
膦
膨
膩
膳
膺
膻
膽
膾
膿
臀
臂
臃
臆
臉
臊
臍
臓
臘
臟
臣
臥
臧
臨
自
臬
臭
至
致
臺
臻
臼
臾
舀
舂
舅
舆
與
興
舉
舊
舌
舍
舎
舐
舒
舔
舖
舗
舛
舜
舞
舟
航
舫
般
舰
舱
舵
舶
舷
舸
船
舺
舾
艇
艋
艘
艙
艦
艮
良
艰
艱
色
艳
艷
艹
艺
艾
节
芃
芈
芊
芋
芍
芎
芒
芙
芜
芝
芡
芥
芦
芩
芪
芫
芬
芭
芮
芯
花
芳
芷
芸
芹
芻
芽
芾
苁
苄
苇
苋
苍
苏
苑
苒
苓
苔
苕
苗
苛
苜
苞
苟
苡
苣
若
苦
苫
苯
英
苷
苹
苻
茁
茂
范
茄
茅
茉
茎
茏
茗
茜
茧
茨
茫
茬
茭
茯
茱
茲
茴
茵
茶
茸
茹
茼
荀
荃
荆
草
荊
荏
荐
荒
荔
荖
荘
荚
荞
荟
荠
荡
荣
荤
荥
荧
荨
荪
荫
药
荳
荷
荸
荻
荼
荽
莅
莆
莉
莊
莎
莒
莓
莖
莘
莞
莠
莢
莧
莪
莫
莱
莲
莴
获
莹
莺
莽
莿
菀
菁
菅
菇
菈
菊
菌
菏
菓
菖
菘
菜
菟
菠
菡
菩
華
菱
菲
菸
菽
萁
萃
萄
萊
萋
萌
萍
萎
萘
萝
萤
营
萦
萧
萨
萩
萬
萱
萵
萸
萼
落
葆
葉
著
葚
葛
葡
董
葦
葩
葫
葬
葭
葯
葱
葳
葵
葷
葺
蒂
蒋
蒐
蒔
蒙
蒜
蒞
蒟
蒡
蒨
蒲
蒸
蒹
蒻
蒼
蒿
蓁
蓄
蓆
蓉
蓋
蓑
蓓
蓖
蓝
蓟
蓦
蓬
蓮
蓼
蓿
蔑
蔓
蔔
蔗
蔘
蔚
蔡
蔣
蔥
蔫
蔬
蔭
蔵
蔷
蔺
蔻
蔼
蔽
蕁
蕃
蕈
蕉
蕊
蕎
蕙
蕤
蕨
蕩
蕪
蕭
蕲
蕴
蕻
蕾
薄
薅
薇
薈
薊
薏
薑
薔
薙
薛
薦
薨
薩
薪
薬
薯
薰
薹
藉
藍
藏
藐
藓
藕
藜
藝
藤
藥
藩
藹
藻
藿
蘆
蘇
蘊
蘋
蘑
蘚
蘭
蘸
蘼
蘿
虎
虏
虐
虑
虔
處
虚
虛
虜
虞
號
虢
虧
虫
虬
虱
虹
虻
虽
虾
蚀
蚁
蚂
蚊
蚌
蚓
蚕
蚜
蚝
蚣
蚤
蚩
蚪
蚯
蚱
蚵
蛀
蛆
蛇
蛊
蛋
蛎
蛐
蛔
蛙
蛛
蛟
蛤
蛭
蛮
蛰
蛳
蛹
蛻
蛾
蜀
蜂
蜃
蜆
蜇
蜈
蜊
蜍
蜒
蜓
蜕
蜗
蜘
蜚
蜜
蜡
蜢
蜥
蜱
蜴
蜷
蜻
蜿
蝇
蝈
蝉
蝌
蝎
蝕
蝗
蝙
蝟
蝠
蝦
蝨
蝴
蝶
蝸
蝼
螂
螃
融
螞
螢
螨
螯
螳
螺
蟀
蟄
蟆
蟋
蟎
蟑
蟒
蟠
蟬
蟲
蟹
蟻
蟾
蠅
蠍
蠔
蠕
蠛
蠟
蠡
蠢
蠣
蠱
蠶
蠹
蠻
血
衄
衅
衆
行
衍
術
衔
街
衙
衛
衝
衞
衡
衢
衣
补
表
衩
衫
衬
衮
衰
衲
衷
衹
衾
衿
袁
袂
袄
袅
袈
袋
袍
袒
袖
袜
袞
袤
袪
被
袭
袱
裁
裂
装
裆
裊
裏
裔
裕
裘
裙
補
裝
裟
裡
裤
裨
裱
裳
裴
裸
裹
製
裾
褂
複
褐
褒
褓
褔
褚
褥
褪
褫
褲
褶
褻
襁
襄
襟
襠
襪
襬
襯
襲
西
要
覃
覆
覇
見
規
覓
視
覚
覦
覧
親
覬
観
覷
覺
覽
觀
见
观
规
觅
视
览
觉
觊
觎
觐
觑
角
觞
解
觥
触
觸
言
訂
計
訊
討
訓
訕
訖
託
記
訛
訝
訟
訣
訥
訪
設
許
訳
訴
訶
診
註
証
詆
詐
詔
評
詛
詞
詠
詡
詢
詣
試
詩
詫
詬
詭
詮
詰
話
該
詳
詹
詼
誅
誇
誉
誌
認
誓
誕
誘
語
誠
誡
誣
誤
誥
誦
誨
說
説
読
誰
課
誹
誼
調
諄
談
請
諏
諒
論
諗
諜
諡
諦
諧
諫
諭
諮
諱
諳
諷
諸
諺
諾
謀
謁
謂
謄
謊
謎
謐
謔
謗
謙
講
謝
謠
謨
謬
謹
謾
譁
證
譎
譏
識
譙
譚
譜
警
譬
譯
議
譲
譴
護
譽
讀
變
讓
讚
讞
计
订
认
讥
讧
讨
让
讪
讫
训
议
讯
记
讲
讳
讴
讶
讷
许
讹
论
讼
讽
设
访
诀
证
诃
评
诅
识
诈
诉
诊
诋
词
诏
译
试
诗
诘
诙
诚
诛
话
诞
诟
诠
诡
询
诣
诤
该
详
诧
诩
诫
诬
语
误
诰
诱
诲
说
诵
诶
请
诸
诺
读
诽
课
诿
谀
谁
调
谄
谅
谆
谈
谊
谋
谌
谍
谎
谏
谐
谑
谒
谓
谔
谕
谗
谘
谙
谚
谛
谜
谟
谢
谣
谤
谥
谦
谧
谨
谩
谪
谬
谭
谯
谱
谲
谴
谶
谷
豁
豆
豇
豈
豉
豊
豌
豎
豐
豔
豚
象
豢
豪
豫
豬
豹
豺
貂
貅
貌
貓
貔
貘
貝
貞
負
財
貢
貧
貨
販
貪
貫
責
貯
貰
貳
貴
貶
買
貸
費
貼
貽
貿
賀
賁
賂
賃
賄
資
賈
賊
賑
賓
賜
賞
賠
賡
賢
賣
賤
賦
質
賬
賭
賴
賺
購
賽
贅
贈
贊
贍
贏
贓
贖
贛
贝
贞
负
贡
财
责
贤
败
账
货
质
贩
贪
贫
贬
购
贮
贯
贰
贱
贲
贴
贵
贷
贸
费
贺
贻
贼
贾
贿
赁
赂
赃
资
赅
赈
赊
赋
赌
赎
赏
赐
赓
赔
赖
赘
赚
赛
赝
赞
赠
赡
赢
赣
赤
赦
赧
赫
赭
走
赳
赴
赵
赶
起
趁
超
越
趋
趕
趙
趟
趣
趨
足
趴
趵
趸
趺
趾
跃
跄
跆
跋
跌
跎
跑
跖
跚
跛
距
跟
跡
跤
跨
跩
跪
路
跳
践
跷
跹
跺
跻
踉
踊
踌
踏
踐
踝
踞
踟
踢
踩
踪
踮
踱
踴
踵
踹
蹂
蹄
蹇
蹈
蹉
蹊
蹋
蹑
蹒
蹙
蹟
蹣
蹤
蹦
蹩
蹬
蹭
蹲
蹴
蹶
蹺
蹼
蹿
躁
躇
躉
躊
躋
躍
躏
躪
身
躬
躯
躲
躺
軀
車
軋
軌
軍
軒
軟
転
軸
軼
軽
軾
較
載
輒
輓
輔
輕
輛
輝
輟
輩
輪
輯
輸
輻
輾
輿
轄
轅
轆
轉
轍
轎
轟
车
轧
轨
轩
转
轭
轮
软
轰
轲
轴
轶
轻
轼
载
轿
较
辄
辅
辆
辇
辈
辉
辊
辍
辐
辑
输
辕
辖
辗
辘
辙
辛
辜
辞
辟
辣
辦
辨
辩
辫
辭
辮
辯
辰
辱
農
边
辺
辻
込
辽
达
迁
迂
迄
迅
过
迈
迎
运
近
返
还
这
进
远
违
连
迟
迢
迤
迥
迦
迩
迪
迫
迭
述
迴
迷
迸
迹
迺
追
退
送
适
逃
逅
逆
选
逊
逍
透
逐
递
途
逕
逗
這
通
逛
逝
逞
速
造
逢
連
逮
週
進
逵
逶
逸
逻
逼
逾
遁
遂
遅
遇
遊
運
遍
過
遏
遐
遑
遒
道
達
違
遗
遙
遛
遜
遞
遠
遢
遣
遥
遨
適
遭
遮
遲
遴
遵
遶
遷
選
遺
遼
遽
避
邀
邁
邂
邃
還
邇
邈
邊
邋
邏
邑
邓
邕
邛
邝
邢
那
邦
邨
邪
邬
邮
邯
邰
邱
邳
邵
邸
邹
邺
邻
郁
郅
郊
郎
郑
郜
郝
郡
郢
郤
郦
郧
部
郫
郭
郴
郵
郷
郸
都
鄂
鄉
鄒
鄔
鄙
鄞
鄢
鄧
鄭
鄰
鄱
鄲
鄺
酉
酊
酋
酌
配
酐
酒
酗
酚
酝
酢
酣
酥
酩
酪
酬
酮
酯
酰
酱
酵
酶
酷
酸
酿
醃
醇
醉
醋
醍
醐
醒
醚
醛
醜
醞
醣
醪
醫
醬
醮
醯
醴
醺
釀
釁
采
釉
释
釋
里
重
野
量
釐
金
釗
釘
釜
針
釣
釦
釧
釵
鈀
鈉
鈍
鈎
鈔
鈕
鈞
鈣
鈦
鈪
鈴
鈺
鈾
鉀
鉄
鉅
鉉
鉑
鉗
鉚
鉛
鉤
鉴
鉻
銀
銃
銅
銑
銓
銖
銘
銜
銬
銭
銮
銳
銷
銹
鋁
鋅
鋒
鋤
鋪
鋰
鋸
鋼
錄
錐
錘
錚
錠
錢
錦
錨
錫
錮
錯
録
錳
錶
鍊
鍋
鍍
鍛
鍥
鍰
鍵
鍺
鍾
鎂
鎊
鎌
鎏
鎔
鎖
鎗
鎚
鎧
鎬
鎮
鎳
鏈
鏖
鏗
鏘
鏞
鏟
鏡
鏢
鏤
鏽
鐘
鐮
鐲
鐳
鐵
鐸
鐺
鑄
鑊
鑑
鑒
鑣
鑫
鑰
鑲
鑼
鑽
鑾
鑿
针
钉
钊
钎
钏
钒
钓
钗
钙
钛
钜
钝
钞
钟
钠
钡
钢
钣
钤
钥
钦
钧
钨
钩
钮
钯
钰
钱
钳
钴
钵
钺
钻
钼
钾
钿
铀
铁
铂
铃
铄
铅
铆
铉
铎
铐
铛
铜
铝
铠
铡
铢
铣
铤
铨
铩
铬
铭
铮
铰
铲
铵
银
铸
铺
链
铿
销
锁
锂
锄
锅
锆
锈
锉
锋
锌
锏
锐
锑
错
锚
锟
锡
锢
锣
锤
锥
锦
锭
键
锯
锰
锲
锵
锹
锺
锻
镀
镁
镂
镇
镉
镌
镍
镐
镑
镕
镖
镗
镛
镜
镣
镭
镯
镰
镳
镶
長
长
門
閃
閉
開
閎
閏
閑
閒
間
閔
閘
閡
関
閣
閥
閨
閩
閱
閲
閹
閻
閾
闆
闇
闊
闌
闍
闔
闕
闖
闘
關
闡
闢
门
闪
闫
闭
问
闯
闰
闲
间
闵
闷
闸
闹
闺
闻
闽
闾
阀
阁
阂
阅
阆
阇
阈
阉
阎
阐
阑
阔
阕
阖
阙
阚
阜
队
阡
阪
阮
阱
防
阳
阴
阵
阶
阻
阿
陀
陂
附
际
陆
陇
陈
陋
陌
降
限
陕
陛
陝
陞
陟
陡
院
陣
除
陨
险
陪
陰
陲
陳
陵
陶
陷
陸
険
陽
隅
隆
隈
隊
隋
隍
階
随
隐
隔
隕
隘
隙
際
障
隠
隣
隧
隨
險
隱
隴
隶
隸
隻
隼
隽
难
雀
雁
雄
雅
集
雇
雉
雋
雌
雍
雎
雏
雑
雒
雕
雖
雙
雛
雜
雞
離
難
雨
雪
雯
雰
雲
雳
零
雷
雹
電
雾
需
霁
霄
霆
震
霈
霉
霊
霍
霎
霏
霑
霓
霖
霜
霞
霧
霭
霰
露
霸
霹
霽
霾
靂
靄
靈
青
靓
靖
静
靚
靛
靜
非
靠
靡
面
靥
靦
革
靳
靴
靶
靼
鞅
鞋
鞍
鞏
鞑
鞘
鞠
鞣
鞦
鞭
韆
韋
韌
韓
韜
韦
韧
韩
韬
韭
音
韵
韶
韻
響
頁
頂
頃
項
順
須
頌
預
頑
頒
頓
頗
領
頜
頡
頤
頫
頭
頰
頷
頸
頹
頻
頼
顆
題
額
顎
顏
顔
願
顛
類
顧
顫
顯
顱
顴
页
顶
顷
项
顺
须
顼
顽
顾
顿
颁
颂
预
颅
领
颇
颈
颉
颊
颌
颍
颐
频
颓
颔
颖
颗
题
颚
颛
颜
额
颞
颠
颡
颢
颤
颦
颧
風
颯
颱
颳
颶
颼
飄
飆
风
飒
飓
飕
飘
飙
飚
飛
飞
食
飢
飨
飩
飪
飯
飲
飼
飽
飾
餃
餅
餉
養
餌
餐
餒
餓
餘
餚
餛
餞
餡
館
餮
餵
餾
饅
饈
饋
饌
饍
饑
饒
饕
饗
饞
饥
饨
饪
饬
饭
饮
饯
饰
饱
饲
饴
饵
饶
饷
饺
饼
饽
饿
馀
馁
馄
馅
馆
馈
馋
馍
馏
馒
馔
首
馗
香
馥
馨
馬
馭
馮
馳
馴
駁
駄
駅
駆
駐
駒
駕
駛
駝
駭
駱
駿
騁
騎
騏
験
騙
騨
騰
騷
驀
驅
驊
驍
驒
驕
驗
驚
驛
驟
驢
驥
马
驭
驮
驯
驰
驱
驳
驴
驶
驷
驸
驹
驻
驼
驾
驿
骁
骂
骄
骅
骆
骇
骈
骊
骋
验
骏
骐
骑
骗
骚
骛
骜
骞
骠
骡
骤
骥
骧
骨
骯
骰
骶
骷
骸
骼
髂
髅
髋
髏
髒
髓
體
髖
高
髦
髪
髮
髯
髻
鬃
鬆
鬍
鬓
鬚
鬟
鬢
鬣
鬥
鬧
鬱
鬼
魁
魂
魄
魅
魇
魍
魏
魔
魘
魚
魯
魷
鮑
鮨
鮪
鮭
鮮
鯉
鯊
鯖
鯛
鯨
鯰
鯽
鰍
鰓
鰭
鰲
鰻
鰾
鱈
鱉
鱔
鱗
鱷
鱸
鱼
鱿
鲁
鲈
鲍
鲑
鲛
鲜
鲟
鲢
鲤
鲨
鲫
鲱
鲲
鲶
鲷
鲸
鳃
鳄
鳅
鳌
鳍
鳕
鳖
鳗
鳝
鳞
鳥
鳩
鳳
鳴
鳶
鴉
鴕
鴛
鴦
鴨
鴻
鴿
鵑
鵜
鵝
鵡
鵬
鵰
鵲
鶘
鶩
鶯
鶴
鷗
鷲
鷹
鷺
鸚
鸞
鸟
鸠
鸡
鸢
鸣
鸥
鸦
鸨
鸪
鸭
鸯
鸳
鸵
鸽
鸾
鸿
鹂
鹃
鹄
鹅
鹈
鹉
鹊
鹌
鹏
鹑
鹕
鹘
鹜
鹞
鹤
鹦
鹧
鹫
鹭
鹰
鹳
鹵
鹹
鹼
鹽
鹿
麂
麋
麒
麓
麗
麝
麟
麥
麦
麩
麴
麵
麸
麺
麻
麼
麽
麾
黃
黄
黍
黎
黏
黑
黒
黔
默
黛
黜
黝
點
黠
黨
黯
黴
鼋
鼎
鼐
鼓
鼠
鼬
鼹
鼻
鼾
齁
齊
齋
齐
齒
齡
齢
齣
齦
齿
龄
龅
龈
龊
龋
龌
龍
龐
龔
龕
龙
龚
龛
龜
龟
︰
︱
︶
︿
﹁
﹂
﹍
﹏
﹐
﹑
﹒
﹔
﹕
﹖
﹗
﹙
﹚
﹝
﹞
﹡
﹣
！
＂
＃
＄
％
＆
＇
（
）
＊
＋
，
－
．
／
０
１
２
３
４
５
６
７
８
９
：
；
＜
＝
＞
？
＠
［
＼
］
＾
＿
｀
ａ
ｂ
ｃ
ｄ
ｅ
ｆ
ｇ
ｈ
ｉ
ｊ
ｋ
ｌ
ｍ
ｎ
ｏ
ｐ
ｑ
ｒ
ｓ
ｔ
ｕ
ｖ
ｗ
ｘ
ｙ
ｚ
｛
｜
｝
～
｡
｢
｣
､
･
ｯ
ｰ
ｲ
ｸ
ｼ
ｽ
ﾄ
ﾉ
ﾌ
ﾗ
ﾙ
ﾝ
ﾞ
ﾟ
￣
￥
👍
🔥
😂
😎
...
yam
10
2017
12
11
2016
20
30
15
06
lofter
##s
2015
by
16
14
18
13
24
17
2014
21
##0
22
19
25
23
com
100
00
05
2013
##a
03
09
08
28
##2
50
01
04
##1
27
02
2012
##3
26
##e
07
##8
##5
##6
##4
##9
##7
29
2011
40
##t
2010
##o
##d
##i
2009
##n
app
www
the
##m
31
##c
##l
##y
##r
##g
2008
60
http
200
qq
##p
80
##f
google
pixnet
90
cookies
tripadvisor
500
##er
##k
35
##h
facebook
2007
2000
70
##b
of
##x
##u
45
300
iphone
32
1000
2006
48
ip
36
in
38
3d
##w
##ing
55
ctrip
##on
##v
33
##の
to
34
400
id
2005
it
37
windows
llc
top
99
42
39
000
led
at
##an
41
51
52
46
49
43
53
44
##z
android
58
and
59
2004
56
vr
##か
5000
2003
47
blogthis
twitter
54
##le
150
ok
2018
57
75
cn
no
ios
##in
##mm
##00
800
on
te
3000
65
2001
360
95
ig
lv
120
##ng
##を
##us
##に
pc
てす
──
600
##te
85
2002
88
##ed
html
ncc
wifi
email
64
blog
is
##10
##て
mail
online
##al
dvd
##ic
studio
##は
##℃
##ia
##と
line
vip
72
##q
98
##ce
##en
for
##is
##ra
##es
##j
usb
net
cp
1999
asia
4g
##cm
diy
new
3c
##お
ta
66
language
vs
apple
tw
86
web
##ne
ipad
62
you
##re
101
68
##tion
ps
de
bt
pony
atm
##2017
1998
67
##ch
ceo
##or
go
##na
av
pro
cafe
96
pinterest
97
63
pixstyleme3c
##ta
more
said
##2016
1997
mp3
700
##ll
nba
jun
##20
92
tv
1995
pm
61
76
nbsp
250
##ie
linux
##ma
cd
110
hd
##17
78
##ion
77
6000
am
##th
##st
94
##se
##et
69
180
gdp
my
105
81
abc
89
flash
79
one
93
1990
1996
##ck
gps
##も
##ly
web885
106
2020
91
##ge
4000
1500
xd
boss
isbn
1994
org
##ry
me
love
##11
0fork
73
##12
3g
##ter
##ar
71
82
##la
hotel
130
1970
pk
83
87
140
ie
##os
##30
##el
74
##50
seo
cpu
##ml
p2p
84
may
##る
sun
tue
internet
cc
posted
youtube
##at
##ン
##man
ii
##ル
##15
abs
nt
pdf
yahoo
ago
1980
##it
news
mac
104
##てす
##me
##り
java
1992
spa
##de
##nt
hk
all
plus
la
1993
##mb
##16
##ve
west
##da
160
air
##い
##ps
から
##to
1989
logo
htc
php
https
fi
momo
##son
sat
##ke
##80
ebd
suv
wi
day
apk
##88
##um
mv
galaxy
wiki
or
brake
##ス
1200
する
this
1991
mon
##こ
❤2017
po
##ない
javascript
life
home
june
##ss
system
900
##ー
##０
pp
1988
world
fb
4k
br
##as
ic
ai
leonardo
safari
##60
live
free
xx
wed
win7
kiehl
##co
lg
o2o
##go
us
235
1949
mm
しい
vfm
kanye
##90
##2015
##id
jr
##ey
123
rss
##sa
##ro
##am
##no
thu
fri
350
##sh
##ki
103
comments
name
##のて
##pe
##ine
max
1987
8000
uber
##mi
##ton
wordpress
office
1986
1985
##ment
107
bd
win10
##ld
##li
gmail
bb
dior
##rs
##ri
##rd
##ます
up
cad
##®
dr
して
read
##21
をお
##io
##99
url
1984
pvc
paypal
show
policy
##40
##ty
##18
with
##★
##01
txt
102
##ba
dna
from
post
mini
ar
taiwan
john
##ga
privacy
agoda
##13
##ny
word
##24
##22
##by
##ur
##hz
1982
##ang
265
cookie
netscape
108
##ka
##～
##ad
house
share
note
ibm
code
hello
nike
sim
survey
##016
1979
1950
wikia
##32
##017
5g
cbc
##tor
##kg
1983
##rt
##14
campaign
store
2500
os
##ct
##ts
##°
170
api
##ns
365
excel
##な
##ao
##ら
##し
～～
##nd
university
163
には
518
##70
##ya
##il
##25
pierre
ipo
0020
897
##23
hotels
##ian
のお
125
years
6606
##ers
##26
high
##day
time
##ay
bug
##line
##く
##す
##be
xp
talk2yam
yamservice
10000
coco
##dy
sony
##ies
1978
microsoft
david
people
##ha
1960
instagram
intel
その
##ot
iso
1981
##va
115
##mo
##land
xxx
man
co
ltxsw
##ation
baby
220
##pa
##ol
1945
7000
tag
450
##ue
msn
##31
oppo
##ト
##ca
control
##om
st
chrome
##ure
##ん
be
##き
lol
##19
した
##bo
240
lady
##100
##way
##から
4600
##ko
##do
##un
4s
corporation
168
##ni
herme
##28
ｃｐ
978
##up
##06
ui
##ds
ppt
admin
three
します
bbc
re
128
##48
ca
##015
##35
hp
##ee
tpp
##た
##ive
××
root
##cc
##ました
##ble
##ity
adobe
park
114
et
oled
city
##ex
##ler
##ap
china
##book
20000
view
##ice
global
##km
your
hong
##mg
out
##ms
ng
ebay
##29
menu
ubuntu
##cy
rom
##view
open
ktv
do
server
##lo
if
english
##ね
##５
##oo
1600
##02
step1
kong
club
135
july
inc
1976
mr
hi
##net
touch
##ls
##ii
michael
lcd
##05
##33
phone
james
step2
1300
ios9
##box
dc
##２
##ley
samsung
111
280
pokemon
css
##ent
##les
いいえ
##１
s8
atom
play
bmw
##said
sa
etf
ctrl
♥yoyo♥
##55
2025
##2014
##66
adidas
amazon
1958
##ber
##ner
visa
##77
##der
1800
connectivity
##hi
firefox
109
118
hr
so
style
mark
pop
ol
skip
1975
as
##27
##ir
##61
190
mba
##う
##ai
le
##ver
1900
cafe2017
lte
super
113
129
##ron
amd
like
##☆
are
##ster
we
##sk
paul
data
international
##ft
longchamp
ssd
good
##ート
##ti
reply
##my
↓↓↓
apr
star
##ker
source
136
js
112
get
force
photo
##one
126
##2013
##ow
link
bbs
1972
goods
##lin
python
119
##ip
game
##ics
##ません
blue
##●
520
##45
page
itunes
##03
1955
260
1968
gt
gif
618
##ff
##47
group
くたさい
about
bar
ganji
##nce
music
lee
not
1977
1971
1973
##per
an
faq
comment
##って
days
##ock
116
##bs
1974
1969
v1
player
1956
xbox
sql
fm
f1
139
##ah
210
##lv
##mp
##000
melody
1957
##３
550
17life
199
1966
xml
market
##au
##71
999
##04
what
gl
##95
##age
tips
##68
book
##ting
mysql
can
1959
230
##ung
wonderland
watch
10℃
##ction
9000
mar
mobile
1946
1962
article
##db
part
▲top
party
って
1967
1964
1948
##07
##ore
##op
この
dj
##78
##38
010
main
225
1965
##ong
art
320
ad
134
020
##73
117
pm2
japan
228
##08
ts
1963
##ica
der
sm
##36
2019
##wa
ct
##７
##や
##64
1937
homemesh
search
##85
##れは
##tv
##di
macbook
##９
##くたさい
service
##♥
type
った
750
##ier
##si
##75
##います
##ok
best
##ット
goris
lock
##った
cf
3m
big
##ut
ftp
carol
##vi
１０
1961
happy
sd
##ac
122
anti
pe
cnn
iii
1920
138
##ラ
1940
esp
jan
tags
##98
##51
august
vol
##86
154
##™
##fs
##れ
##sion
design
ac
##ム
press
jordan
ppp
that
key
check
##６
##tt
##㎡
1080p
##lt
power
##42
1952
##bc
vivi
##ック
he
133
121
jpg
##rry
201
175
3500
1947
nb
##ted
##rn
しています
1954
usd
##t00
master
##ンク
001
model
##58
al
##09
1953
##34
ram
goo
ても
##ui
127
1930
red
##ary
rpg
item
##pm
##41
270
##za
project
##2012
hot
td
blogabstract
##ger
##62
650
##44
gr2
##します
##ｍ
black
electronic
nfc
year
asus
また
html5
cindy
##hd
m3
132
esc
##od
booking
##53
fed
tvb
##81
##ina
mit
165
##いる
chan
192
distribution
next
になる
peter
bios
steam
cm
1941
にも
pk10
##ix
##65
##91
dec
nasa
##ana
icecat
00z
b1
will
##46
li
se
##ji
##み
##ard
oct
##ain
jp
##ze
##bi
cio
##56
smart
h5
##39
##port
curve
vpn
##nm
##dia
utc
##あり
12345678910
##52
rmvb
chanel
a4
miss
##and
##im
media
who
##63
she
girl
5s
124
vera
##して
class
vivo
king
##フ
##ei
national
ab
1951
5cm
888
145
ipod
ap
1100
5mm
211
ms
2756
##69
mp4
msci
##po
##89
131
mg
index
380
##bit
##out
##zz
##97
##67
158
apec
##８
photoshop
opec
￥799
ては
##96
##tes
##ast
2g
○○
##ール
￥2899
##ling
##よ
##ory
1938
##ical
kitty
content
##43
step3
##cn
win8
155
vc
1400
iphone7
robert
##した
tcl
137
beauty
##87
en
dollars
##ys
##oc
step
pay
yy
a1
##2011
##lly
##ks
##♪
1939
188
download
1944
sep
exe
ph
います
school
gb
center
pr
street
##board
uv
##37
##lan
winrar
##que
##ua
##com
1942
1936
480
gpu
##４
ettoday
fu
tom
##54
##ren
##via
149
##72
b2b
144
##79
##tch
rose
arm
mb
##49
##ial
##nn
nvidia
step4
mvp
00㎡
york
156
##イ
how
cpi
591
2765
gov
kg
joe
##xx
mandy
pa
##ser
copyright
fashion
1935
don
##け
ecu
##ist
##art
erp
wap
have
##lm
talk
##ek
##ning
##if
ch
##ite
video
1943
cs
san
iot
look
##84
##2010
##ku
october
##ux
trump
##hs
##ide
box
141
first
##ins
april
##ight
##83
185
angel
protected
aa
151
162
x1
m2
##fe
##×
##ho
size
143
min
ofo
fun
gomaji
ex
hdmi
food
dns
march
chris
kevin
##のか
##lla
##pp
##ec
ag
ems
6s
720p
##rm
##ham
off
##92
asp
team
fandom
ed
299
▌♥
##ell
info
されています
##82
sina
4066
161
##able
##ctor
330
399
315
dll
rights
ltd
idc
jul
3kg
1927
142
ma
surface
##76
##ク
～～～
304
mall
eps
146
green
##59
map
space
donald
v2
sodu
##light
1931
148
1700
まて
310
reserved
htm
##han
##57
2d
178
mod
##ise
##tions
152
ti
##shi
doc
1933
icp
055
wang
##ram
shopping
aug
##pi
##well
now
wam
b2
からお
##hu
236
1928
##gb
266
f2
##93
153
mix
##ef
##uan
bwl
##plus
##res
core
##ess
tea
5℃
hktvmall
nhk
##ate
list
##ese
301
feb
4m
inn
ての
nov
159
12345
daniel
##ci
pass
##bet
##nk
coffee
202
ssl
airbnb
##ute
fbi
woshipm
skype
ea
cg
sp
##fc
##www
yes
edge
alt
007
##94
fpga
##ght
##gs
iso9001
さい
##ile
##wood
##uo
image
lin
icon
american
##em
1932
set
says
##king
##tive
blogger
##74
なと
256
147
##ox
##zy
##red
##ium
##lf
nokia
claire
##リ
##ding
november
lohas
##500
##tic
##マ
##cs
##ある
##che
##ire
##gy
##ult
db
january
win
##カ
166
road
ptt
##ま
##つ
198
##fa
##mer
anna
pchome
はい
udn
ef
420
##time
##tte
2030
##ア
g20
white
かかります
1929
308
garden
eleven
di
##おります
chen
309b
777
172
young
cosplay
ちてない
4500
bat
##123
##tra
##ては
kindle
npc
steve
etc
##ern
##｜
call
xperia
ces
travel
sk
s7
##ous
1934
##int
みいたたけます
183
edu
file
cho
qr
##car
##our
186
##ant
##ｄ
eric
1914
rends
##jo
##する
mastercard
##2000
kb
##min
290
##ino
vista
##ris
##ud
jack
2400
##set
169
pos
1912
##her
##ou
taipei
しく
205
beta
##ませんか
232
##fi
express
255
body
##ill
aphojoy
user
december
meiki
##ick
tweet
richard
##av
##ᆫ
iphone6
##dd
ちてすか
views
##mark
321
pd
##００
times
##▲
level
##ash
10g
point
5l
##ome
208
koreanmall
##ak
george
q2
206
wma
tcp
##200
スタッフ
full
mlb
##lle
##watch
tm
run
179
911
smith
business
##und
1919
color
##tal
222
171
##less
moon
4399
##rl
update
pcb
shop
499
157
little
なし
end
##mhz
van
dsp
easy
660
##house
##key
history
##ｏ
oh
##001
##hy
##web
oem
let
was
##2009
##gg
review
##wan
182
##°c
203
uc
title
##val
united
233
2021
##ons
doi
trivago
overdope
sbs
##ance
##ち
grand
special
573032185
imf
216
wx17house
##so
##ーム
audi
##he
london
william
##rp
##ake
science
beach
cfa
amp
ps4
880
##800
##link
##hp
crm
ferragamo
bell
make
##eng
195
under
zh
photos
2300
##style
##ント
via
176
da
##gi
company
i7
##ray
thomas
370
ufo
i5
##max
plc
ben
back
research
8g
173
mike
##pc
##ッフ
september
189
##ace
vps
february
167
pantos
wp
lisa
1921
★★
jquery
night
long
offer
##berg
##news
1911
##いて
ray
fks
wto
せます
over
164
340
##all
##rus
1924
##888
##works
blogtitle
loftpermalink
##→
187
martin
test
ling
km
##め
15000
fda
v3
##ja
##ロ
ｗedding
かある
outlet
family
##ea
をこ
##top
story
##ness
salvatore
##lu
204
swift
215
room
している
oracle
##ul
1925
sam
b2c
week
pi
rock
##のは
##ａ
##けと
##ean
##300
##gle
cctv
after
chinese
##back
powered
x2
##tan
1918
##nes
##イン
canon
only
181
##zi
##las
say
##oe
184
##sd
221
##bot
##world
##zo
sky
made
top100
just
1926
pmi
802
234
gap
##vr
177
les
174
▲topoct
ball
vogue
vi
ing
ofweek
cos
##list
##ort
▲topmay
##なら
##lon
として
last
##tc
##of
##bus
##gen
real
eva
##コ
a3
nas
##lie
##ria
##coin
##bt
▲topapr
his
212
cat
nata
vive
health
⋯⋯
drive
sir
▲topmar
du
cup
##カー
##ook
##よう
##sy
alex
msg
tour
しました
3ce
##word
193
ebooks
r8
block
318
##より
2200
nice
pvp
207
months
1905
rewards
##ther
1917
0800
##xi
##チ
##sc
micro
850
gg
blogfp
op
1922
daily
m1
264
true
##bb
ml
##tar
##のお
##ky
anthony
196
253
##yo
state
218
##ara
##aa
##rc
##tz
##ston
より
gear
##eo
##ade
ge
see
1923
##win
##ura
ss
heart
##den
##ita
down
##sm
el
png
2100
610
rakuten
whatsapp
bay
dream
add
##use
680
311
pad
gucci
mpv
##ode
##fo
island
▲topjun
##▼
223
jason
214
chicago
##❤
しの
##hone
io
##れる
##ことか
sogo
be2
##ology
990
cloud
vcd
##con
2～3
##ford
##joy
##kb
##こさいます
##rade
but
##ach
docker
##ful
rfid
ul
##ase
hit
ford
##star
580
##○
１１
a2
sdk
reading
edited
##are
cmos
##mc
238
siri
light
##ella
##ため
bloomberg
##read
pizza
##ison
jimmy
##vm
college
node
journal
ba
18k
##play
245
##cer
２０
magic
##yu
191
jump
288
tt
##ings
asr
##lia
3200
step5
network
##cd
mc
いします
1234
pixstyleme
273
##600
2800
money
★★★★★
1280
１２
430
bl
みの
act
##tus
tokyo
##rial
##life
emba
##ae
saas
tcs
##rk
##wang
summer
##sp
ko
##ving
390
premium
##その
netflix
##ヒ
uk
mt
##lton
right
frank
two
209
える
##ple
##cal
021
##んな
##sen
##ville
hold
nexus
dd
##ius
てお
##mah
##なく
tila
zero
820
ce
##tin
resort
##ws
charles
old
p10
5d
report
##360
##ru
##には
bus
vans
lt
##est
pv
##レ
links
rebecca
##ツ
##dm
azure
##365
きな
limited
bit
4gb
##mon
1910
moto
##eam
213
1913
var
eos
なとの
226
blogspot
された
699
e3
dos
dm
fc
##ments
##ik
##kw
boy
##bin
##ata
960
er
##せ
219
##vin
##tu
##ula
194
##∥
station
##ろ
##ature
835
files
zara
hdr
top10
nature
950
magazine
s6
marriott
##シ
avira
case
##っと
tab
##ran
tony
##home
oculus
im
##ral
jean
saint
cry
307
rosie
##force
##ini
ice
##bert
のある
##nder
##mber
pet
2600
##◆
plurk
▲topdec
##sis
00kg
▲topnov
720
##ence
tim
##ω
##nc
##ても
##name
log
ips
great
ikea
malaysia
unix
##イト
3600
##ncy
##nie
12000
akb48
##ye
##oid
404
##chi
##いた
oa
xuehai
##1000
##orm
##rf
275
さん
##ware
##リー
980
ho
##pro
text
##era
560
bob
227
##ub
##2008
8891
scp
avi
##zen
2022
mi
wu
museum
qvod
apache
lake
jcb
▲topaug
★★★
ni
##hr
hill
302
ne
weibo
490
ruby
##ーシ
##ヶ
##row
4d
▲topjul
iv
##ish
github
306
mate
312
##スト
##lot
##ane
andrew
のハイト
##tina
t1
rf
ed2k
##vel
##900
way
final
りの
ns
5a
705
197
##メ
sweet
bytes
##ene
▲topjan
231
##cker
##2007
##px
100g
topapp
229
helpapp
rs
low
14k
g4g
care
630
ldquo
あり
##fork
leave
rm
edition
##gan
##zon
##qq
▲topsep
##google
##ism
gold
224
explorer
##zer
toyota
category
select
visual
##labels
restaurant
##md
posts
s1
##ico
もっと
angelababy
123456
217
sports
s3
mbc
1915
してくたさい
shell
x86
candy
##new
kbs
face
xl
470
##here
4a
swissinfo
v8
▲topfeb
dram
##ual
##vice
3a
##wer
sport
q1
ios10
public
int
card
##ｃ
ep
au
rt
##れた
1080
bill
##mll
kim
３０
460
wan
##uk
##ミ
x3
298
0t
scott
##ming
239
e5
##3d
h7n9
worldcat
brown
##あります
##vo
##led
##580
##ax
249
410
##ert
paris
##～6
polo
925
##lr
599
##ナ
capital
##hing
bank
cv
1g
##chat
##ｓ
##たい
adc
##ule
2m
##ｅ
digital
hotmail
268
##pad
870
bbq
quot
##ring
before
wali
##まて
mcu
2k
2b
という
costco
316
north
333
switch
##city
##ｐ
philips
##mann
management
panasonic
##cl
##vd
##ping
##rge
alice
##lk
##ましょう
css3
##ney
vision
alpha
##ular
##400
##tter
lz
にお
##ありません
mode
gre
1916
pci
##tm
237
1～2
##yan
##そ
について
##let
##キ
work
war
coach
ah
mary
##ᅵ
huang
##pt
a8
pt
follow
##berry
1895
##ew
a5
ghost
##ション
##wn
##og
south
##code
girls
##rid
action
villa
git
r11
table
games
##cket
error
##anonymoussaid
##ag
here
##ame
##gc
qa
##■
##lis
gmp
##gin
vmalife
##cher
yu
wedding
##tis
demo
dragon
530
soho
social
bye
##rant
river
orz
acer
325
##↑
##ース
##ats
261
del
##ven
440
ups
##ように
##ター
305
value
macd
yougou
##dn
661
##ano
ll
##urt
##rent
continue
script
##wen
##ect
paper
263
319
shift
##chel
##フト
##cat
258
x5
fox
243
##さん
car
aaa
##blog
loading
##yn
##tp
kuso
799
si
sns
イカせるテンマ
ヒンクテンマ3
rmb
vdc
forest
central
prime
help
ultra
##rmb
##ような
241
square
688
##しい
のないフロクに
##field
##reen
##ors
##ju
c1
start
510
##air
##map
cdn
##wo
cba
stephen
m8
100km
##get
opera
##base
##ood
vsa
com™
##aw
##ail
251
なのて
count
t2
##ᅡ
##een
2700
hop
##gp
vsc
tree
##eg
##ose
816
285
##ories
##shop
alphago
v4
1909
simon
##ᆼ
fluke62max
zip
スホンサー
##sta
louis
cr
bas
##～10
bc
##yer
hadoop
##ube
##wi
1906
0755
hola
##low
place
centre
5v
d3
##fer
252
##750
##media
281
540
0l
exchange
262
series
##ハー
##san
eb
##bank
##ｋ
q3
##nge
##mail
take
##lp
259
1888
client
east
cache
event
vincent
##ールを
きを
##nse
sui
855
adchoice
##и
##stry
##なたの
246
##zone
ga
apps
sea
##ab
248
cisco
##タ
##rner
kymco
##care
dha
##pu
##yi
minkoff
royal
p1
への
annie
269
collection
kpi
playstation
257
になります
866
bh
##bar
queen
505
radio
1904
andy
armani
##xy
manager
iherb
##ery
##share
spring
raid
johnson
1908
##ob
volvo
hall
##ball
v6
our
taylor
##hk
bi
242
##cp
kate
bo
water
technology
##rie
サイトは
277
##ona
##sl
hpv
303
gtx
hip
rdquo
jayz
stone
##lex
##rum
namespace
##やり
620
##ale
##atic
des
##erson
##ql
##ves
##type
enter
##この
##てきます
d2
##168
##mix
##bian
との
a9
jj
ky
##lc
access
movie
##hc
リストに
tower
##ration
##mit
ます
##nch
ua
tel
prefix
##o2
1907
##point
1901
ott
～10
##http
##ury
baidu
##ink
member
##logy
bigbang
nownews
##js
##shot
##tb
##こと
247
eba
##tics
##lus
ける
v5
spark
##ama
there
##ions
god
##lls
##down
hiv
##ress
burberry
day2
##kv
◆◆
jeff
related
film
edit
joseph
283
##ark
cx
32gb
order
g9
30000
##ans
##tty
s5
##bee
かあります
thread
xr
buy
sh
005
land
spotify
mx
##ari
276
##verse
×email
sf
why
##ことて
244
7headlines
nego
sunny
dom
exo
401
666
positioning
fit
rgb
##tton
278
kiss
alexa
adam
lp
みリストを
##ｇ
mp
##ties
##llow
amy
##du
np
002
institute
271
##rth
##lar
2345
590
##des
sidebar
１５
imax
site
##cky
##kit
##ime
##009
season
323
##fun
##ンター
##ひ
gogoro
a7
pu
lily
fire
twd600
##ッセーシを
いて
##vis
30ml
##cture
##をお
information
##オ
close
friday
##くれる
yi
nick
てすか
##tta
##tel
6500
##lock
cbd
economy
254
かお
267
tinker
double
375
8gb
voice
##app
oops
channel
today
985
##right
raw
xyz
##＋
jim
edm
##cent
7500
supreme
814
ds
##its
##asia
dropbox
##てすか
##tti
books
272
100ml
##tle
##ller
##ken
##more
##boy
sex
309
##dom
t3
##ider
##なります
##unch
1903
810
feel
5500
##かった
##put
により
s2
mo
##gh
men
ka
amoled
div
##tr
##n1
port
howard
##tags
ken
dnf
##nus
adsense
##а
ide
##へ
buff
thunder
##town
##ique
has
##body
auto
pin
##erry
tee
てした
295
number
##the
##013
object
psp
cool
udnbkk
16gb
##mic
miui
##tro
most
r2
##alk
##nity
1880
±0
##いました
428
s4
law
version
##oa
n1
sgs
docomo
##tf
##ack
henry
fc2
##ded
##sco
##014
##rite
286
0mm
linkedin
##ada
##now
wii
##ndy
ucbug
##◎
sputniknews
legalminer
##ika
##xp
2gb
##bu
q10
oo
b6
come
##rman
cheese
ming
maker
##gm
nikon
##fig
ppi
kelly
##ります
jchere
てきます
ted
md
003
fgo
tech
##tto
dan
soc
##gl
##len
hair
earth
640
521
img
##pper
##a1
##てきる
##ロク
acca
##ition
##ference
suite
##ig
outlook
##mond
##cation
398
##pr
279
101vip
358
##999
282
64gb
3800
345
airport
##over
284
##おり
jones
##ith
lab
##su
##いるのて
co2
town
piece
##llo
no1
vmware
24h
##qi
focus
reader
##admin
##ora
tb
false
##log
1898
know
lan
838
##ces
f4
##ume
motel
stop
##oper
na
flickr
netcomponents
##af
##─
pose
williams
local
##ound
##cg
##site
##iko
いお
274
5m
gsm
con
##ath
1902
friends
##hip
cell
317
##rey
780
cream
##cks
012
##dp
facebooktwitterpinterestgoogle
sso
324
shtml
song
swiss
##mw
##キンク
lumia
xdd
string
tiffany
522
marc
られた
insee
russell
sc
dell
##ations
ｏｋ
camera
289
##vs
##flow
##late
classic
287
##nter
stay
g1
mtv
512
##ever
##lab
##nger
qe
sata
ryan
d1
50ml
cms
##cing
su
292
3300
editor
296
##nap
security
sunday
association
##ens
##700
##bra
acg
##かり
sofascore
とは
mkv
##ign
jonathan
gary
build
labels
##oto
tesla
moba
qi
gohappy
general
ajax
1024
##かる
サイト
society
##test
##urs
wps
fedora
##ich
mozilla
328
##480
##dr
usa
urn
##lina
##ｒ
grace
##die
##try
##ader
1250
##なり
elle
570
##chen
##ᆯ
price
##ten
uhz
##ough
eq
##hen
states
push
session
balance
wow
506
##cus
##py
when
##ward
##ep
34e
wong
library
prada
##サイト
##cle
running
##ree
313
ck
date
q4
##ctive
##ool
##＞
mk
##ira
##163
388
die
secret
rq
dota
buffet
は１ヶ
e6
##ez
pan
368
ha
##card
##cha
2a
##さ
alan
day3
eye
f3
##end
france
keep
adi
rna
tvbs
##ala
solo
nova
##え
##tail
##ょう
support
##ries
##なる
##ved
base
copy
iis
fps
##ways
hero
hgih
profile
fish
mu
ssh
entertainment
chang
##wd
click
cake
##ond
pre
##tom
kic
pixel
##ov
##fl
product
6a
##pd
dear
##gate
es
yumi
audio
##²
##sky
echo
bin
where
##ture
329
##ape
find
sap
isis
##なと
nand
##101
##load
##ream
band
a6
525
never
##post
festival
50cm
##we
555
guide
314
zenfone
##ike
335
gd
forum
jessica
strong
alexander
##ould
software
allen
##ious
program
360°
else
lohasthree
##gar
することかてきます
please
##れます
rc
##ggle
##ric
bim
50000
##own
eclipse
355
brian
3ds
##side
061
361
##other
##ける
##tech
##ator
485
engine
##ged
##ｔ
plaza
##fit
cia
ngo
westbrook
shi
tbs
50mm
##みませんか
sci
291
reuters
##ily
contextlink
##hn
af
##cil
bridge
very
##cel
1890
cambridge
##ize
15g
##aid
##data
790
frm
##head
award
butler
##sun
meta
##mar
america
ps3
puma
pmid
##すか
lc
670
kitchen
##lic
オーフン5
きなしソフトサーヒス
そして
day1
future
★★★★
##text
##page
##rris
pm1
##ket
fans
##っています
1001
christian
bot
kids
trackback
##hai
c3
display
##hl
n2
1896
idea
さんも
##sent
airmail
##ug
##men
pwm
けます
028
##lution
369
852
awards
schemas
354
asics
wikipedia
font
##tional
##vy
c2
293
##れている
##dget
##ein
っている
contact
pepper
スキル
339
##～5
294
##uel
##ument
730
##hang
みてす
q5
##sue
rain
##ndi
wei
swatch
##cept
わせ
331
popular
##ste
##tag
p2
501
trc
1899
##west
##live
justin
honda
ping
messenger
##rap
v9
543
##とは
unity
appqq
はすへて
025
leo
##tone
##テ
##ass
uniqlo
##010
502
her
jane
memory
moneydj
##tical
human
12306
していると
##m2
coc
miacare
##mn
tmt
##core
vim
kk
##may
fan
target
use
too
338
435
2050
867
737
fast
##2c
services
##ope
omega
energy
##わ
pinkoi
1a
##なから
##rain
jackson
##ement
##シャンルの
374
366
そんな
p9
rd
##ᆨ
1111
##tier
##vic
zone
##│
385
690
dl
isofix
cpa
m4
322
kimi
めて
davis
##lay
lulu
##uck
050
weeks
qs
##hop
920
##ｎ
ae
##ear
～5
eia
405
##fly
korea
jpeg
boost
##ship
small
##リア
1860
eur
297
425
valley
##iel
simple
##ude
rn
k2
##ena
されます
non
patrick
しているから
##ナー
feed
5757
30g
process
well
qqmei
##thing
they
aws
lu
pink
##ters
##kin
または
board
##vertisement
wine
##ien
unicode
##dge
r1
359
##tant
いを
##twitter
##3c
cool1
される
##れて
##ｌ
isp
##012
standard
45㎡2
402
##150
matt
##fu
326
##iner
googlemsn
pixnetfacebookyahoo
##ラン
x7
886
##uce
メーカー
sao
##ev
##きました
##file
9678
403
xddd
shirt
6l
##rio
##hat
3mm
givenchy
ya
bang
##lio
monday
crystal
ロクイン
##abc
336
head
890
ubuntuforumwikilinuxpastechat
##vc
##～20
##rity
cnc
7866
ipv6
null
1897
##ost
yang
imsean
tiger
##fet
##ンス
352
##＝
dji
327
ji
maria
##come
##んて
foundation
3100
##beth
##なった
1m
601
active
##aft
##don
3p
sr
349
emma
##khz
living
415
353
1889
341
709
457
sas
x6
##face
pptv
x4
##mate
han
sophie
##jing
337
fifa
##mand
other
sale
inwedding
##gn
てきちゃいます
##mmy
##pmlast
bad
nana
nbc
してみてくたさいね
なとはお
##wu
##かあります
##あ
note7
single
##340
せからこ
してくたさい♪この
しにはとんとんワークケートを
するとあなたにもっとマッチした
ならワークケートへ
もみつかっちゃうかも
ワークケートの
##bel
window
##dio
##ht
union
age
382
１４
##ivity
##ｙ
コメント
domain
neo
##isa
##lter
5k
f5
steven
##cts
powerpoint
tft
self
g2
ft
##テル
zol
##act
mwc
381
343
もう
nbapop
408
てある
eds
ace
##room
previous
author
tomtom
il
##ets
hu
financial
☆☆☆
っています
bp
5t
chi
1gb
##hg
fairmont
cross
008
gay
h2
function
##けて
356
also
1b
625
##ータ
##raph
1894
3～5
##ils
i3
334
avenue
##host
による
##bon
##tsu
message
navigation
50g
fintech
h6
##ことを
8cm
##ject
##vas
##firm
credit
##wf
xxxx
form
##nor
##space
huawei
plan
json
sbl
##dc
machine
921
392
wish
##120
##sol
windows7
edward
##ために
development
washington
##nsis
lo
818
##sio
##ym
##bor
planet
##～8
##wt
ieee
gpa
##めて
camp
ann
gm
##tw
##oka
connect
##rss
##work
##atus
wall
chicken
soul
2mm
##times
fa
##ather
##cord
009
##eep
hitachi
gui
harry
##pan
e1
disney
##press
##ーション
wind
386
frigidaire
##tl
liu
hsu
332
basic
von
ev
いた
てきる
スホンサーサイト
learning
##ull
expedia
archives
change
##wei
santa
cut
ins
6gb
turbo
brand
cf1
508
004
return
747
##rip
h1
##nis
##をこ
128gb
##にお
3t
application
しており
emc
rx
##oon
384
quick
412
15058
wilson
wing
chapter
##bug
beyond
##cms
##dar
##oh
zoom
e2
trip
sb
##nba
rcep
342
aspx
ci
080
gc
gnu
める
##count
advanced
dance
dv
##url
##ging
367
8591
am09
shadow
battle
346
##ｉ
##cia
##という
emily
##のてす
##tation
host
ff
techorz
sars
##mini
##mporary
##ering
nc
4200
798
##next
cma
##mbps
##gas
##ift
##dot
##ィ
455
##～17
amana
##りの
426
##ros
ir
00㎡1
##eet
##ible
##↓
710
ˋ▽ˊ
##aka
dcs
iq
##ｖ
l1
##lor
maggie
##011
##iu
588
##～1
830
##gt
1tb
articles
create
##burg
##iki
database
fantasy
##rex
##cam
dlc
dean
##you
hard
path
gaming
victoria
maps
cb
##lee
##itor
overchicstoretvhome
systems
##xt
416
p3
sarah
760
##nan
407
486
x9
install
second
626
##ann
##ph
##rcle
##nic
860
##nar
ec
##とう
768
metro
chocolate
##rian
～4
##table
##しています
skin
##sn
395
mountain
##0mm
inparadise
6m
7x24
ib
4800
##jia
eeworld
creative
g5
g3
357
parker
ecfa
village
からの
18000
sylvia
サーヒス
hbl
##ques
##onsored
##x2
##きます
##v4
##tein
ie6
383
##stack
389
ver
##ads
##baby
sound
bbe
##110
##lone
##uid
ads
022
gundam
351
thinkpad
006
scrum
match
##ave
mems
##470
##oy
##なりました
##talk
glass
lamigo
span
##eme
job
##a5
jay
wade
kde
498
##lace
ocean
tvg
##covery
##r3
##ners
##rea
junior
think
##aine
cover
##ision
##sia
↓↓
##bow
msi
413
458
406
##love
711
801
soft
z2
##pl
456
1840
mobil
mind
##uy
427
nginx
##oi
めた
##rr
6221
##mple
##sson
##ーシてす
371
##nts
91tv
comhd
crv3000
##uard
1868
397
deep
lost
field
gallery
##bia
rate
spf
redis
traction
930
icloud
011
なら
fe
jose
372
##tory
into
sohu
fx
899
379
kicstart2
##hia
すく
##～3
##sit
ra
２４
##walk
##xure
500g
##pact
pacific
xa
natural
carlo
##250
##walker
1850
##can
cto
gigi
516
##サー
pen
##hoo
ob
matlab
##ｂ
##yy
13913459
##iti
mango
##bbs
sense
c5
oxford
##ニア
walker
jennifer
##ola
course
##bre
701
##pus
##rder
lucky
075
##ぁ
ivy
なお
##nia
sotheby
side
##ugh
joy
##orage
##ush
##bat
##dt
364
r9
##2d
##gio
511
country
wear
##lax
##～7
##moon
393
seven
study
411
348
lonzo
8k
##ェ
evolution
##イフ
##kk
gs
kd
##レス
arduino
344
b12
##lux
arpg
##rdon
cook
##x5
dark
five
##als
##ida
とても
sign
362
##ちの
something
20mm
##nda
387
##posted
fresh
tf
1870
422
cam
##mine
##skip
##form
##ssion
education
394
##tee
dyson
stage
##jie
want
##night
epson
pack
あります
##ppy
テリヘル
##█
wd
##eh
##rence
left
##lvin
golden
mhz
discovery
##trix
##n2
loft
##uch
##dra
##sse
speed
～1
1mdb
sorry
welcome
##urn
wave
gaga
##lmer
teddy
##160
トラックハック
せよ
611
##f2016
378
rp
##sha
rar
##あなたに
##きた
840
holiday
##ュー
373
074
##vg
##nos
##rail
gartner
gi
6p
##dium
kit
488
b3
eco
##ろう
20g
sean
##stone
autocad
nu
##np
f16
write
029
m5
##ias
images
atp
##dk
fsm
504
1350
ve
52kb
##xxx
##のに
##cake
414
unit
lim
ru
1v
##ification
published
angela
16g
analytics
ak
##ｑ
##nel
gmt
##icon
again
##₂
##bby
ios11
445
かこさいます
waze
いてす
##ハ
9985
##ust
##ティー
framework
##007
iptv
delete
52sykb
cl
wwdc
027
30cm
##fw
##ての
1389
##xon
brandt
##ses
##dragon
tc
vetements
anne
monte
modern
official
##へて
##ere
##nne
##oud
もちろん
５０
etnews
##a2
##graphy
421
863
##ちゃん
444
##rtex
##てお
l2
##gma
mount
ccd
たと
archive
morning
tan
ddos
e7
##ホ
day4
##ウ
gis
453
its
495
factory
bruce
pg
##ito
ってくたさい
guest
cdma
##lling
536
n3
しかし
3～4
mega
eyes
ro
１３
women
dac
church
##jun
singapore
##facebook
6991
starbucks
##tos
##stin
##shine
zen
##mu
tina
20℃
1893
##たけて
503
465
request
##gence
qt
##っ
1886
347
363
q7
##zzi
diary
##tore
409
##ead
468
cst
##osa
canada
agent
va
##jiang
##ちは
##ーク
##lam
sg
##nix
##sday
##よって
g6
##master
bing
##zl
charlie
１６
8mm
nb40
##ーン
thai
##ルフ
ln284ct
##itz
##2f
bonnie
##food
##lent
originals
##stro
##lts
418
∟∣
##bscribe
children
ntd
yesstyle
##かも
hmv
##tment
d5
2cm
arts
sms
##pn
##я
##いい
topios9
539
lifestyle
virtual
##ague
xz
##deo
muji
024
unt
##nnis
##ᅩ
faq1
1884
396
##ette
fly
64㎡
はしめまして
441
curry
##pop
のこ
release
##←
##◆◆
##cast
073
ありな
500ml
##ews
5c
##stle
ios7
##ima
787
dog
lenovo
##r4
roger
013
cbs
vornado
100m
417
##desk
##クok
##ald
1867
9595
2900
##van
oil
##ｘ
some
break
common
##jy
##lines
g7
twice
419
ella
nano
belle
にこ
##mes
##self
##note
jb
##ことかてきます
benz
##との
##ova
451
save
##wing
##ますのて
kai
りは
##hua
##rect
rainer
##unge
448
##0m
adsl
##かな
guestname
##uma
##kins
##zu
tokichoi
##price
county
##med
##mus
rmk
391
address
vm
えて
openload
##group
##hin
##iginal
amg
urban
##oz
jobs
emi
##public
beautiful
##sch
album
##dden
##bell
jerry
works
hostel
miller
##drive
##rmin
##１０
376
boot
828
##370
##fx
##cm～
1885
##nome
##ctionary
##oman
##lish
##cr
##hm
433
##how
432
francis
xi
c919
b5
evernote
##uc
vga
##3000
coupe
##urg
##cca
##uality
019
6g
れる
multi
##また
##ett
em
hey
##ani
##tax
##rma
inside
than
740
leonnhurt
##jin
ict
れた
bird
notes
200mm
くの
##dical
##lli
result
442
iu
ee
438
smap
gopro
##last
yin
pure
998
32g
けた
5kg
##dan
##rame
mama
##oot
bean
marketing
##hur
2l
bella
sync
xuite
##ground
515
discuz
##getrelax
##ince
##bay
##5s
cj
##イス
gmat
apt
##pass
jing
##rix
c4
rich
##とても
niusnews
##ello
bag
770
##eting
##mobile
１８
culture
015
##のてすか
377
1020
area
##ience
616
details
gp
universal
silver
dit
はお
private
ddd
u11
kanshu
##ified
fung
##nny
dx
##520
tai
475
023
##fr
##lean
3s
##pin
429
##rin
25000
ly
rick
##bility
usb3
banner
##baru
##gion
metal
dt
vdf
1871
karl
qualcomm
bear
1010
oldid
ian
jo
##tors
population
##ernel
1882
mmorpg
##mv
##bike
603
##©
ww
friend
##ager
exhibition
##del
##pods
fpx
structure
##free
##tings
kl
##rley
##copyright
##mma
california
3400
orange
yoga
4l
canmake
honey
##anda
##コメント
595
nikkie
##ルハイト
dhl
publishing
##mall
##gnet
20cm
513
##クセス
##┅
e88
970
##dog
fishbase
##!
##"
###
##$
##%
##&
##'
##(
##)
##*
##+
##,
##-
##.
##/
##:
##;
##<
##=
##>
##?
##@
##[
##\
##]
##^
##_
##{
##|
##}
##~
##£
##¤
##¥
##§
##«
##±
##³
##µ
##·
##¹
##º
##»
##¼
##ß
##æ
##÷
##ø
##đ
##ŋ
##ɔ
##ə
##ɡ
##ʰ
##ˇ
##ˈ
##ˊ
##ˋ
##ˍ
##ː
##˙
##˚
##ˢ
##α
##β
##γ
##δ
##ε
##η
##θ
##ι
##κ
##λ
##μ
##ν
##ο
##π
##ρ
##ς
##σ
##τ
##υ
##φ
##χ
##ψ
##б
##в
##г
##д
##е
##ж
##з
##к
##л
##м
##н
##о
##п
##р
##с
##т
##у
##ф
##х
##ц
##ч
##ш
##ы
##ь
##і
##ا
##ب
##ة
##ت
##د
##ر
##س
##ع
##ل
##م
##ن
##ه
##و
##ي
##۩
##ก
##ง
##น
##ม
##ย
##ร
##อ
##า
##เ
##๑
##་
##ღ
##ᄀ
##ᄁ
##ᄂ
##ᄃ
##ᄅ
##ᄆ
##ᄇ
##ᄈ
##ᄉ
##ᄋ
##ᄌ
##ᄎ
##ᄏ
##ᄐ
##ᄑ
##ᄒ
##ᅢ
##ᅣ
##ᅥ
##ᅦ
##ᅧ
##ᅨ
##ᅪ
##ᅬ
##ᅭ
##ᅮ
##ᅯ
##ᅲ
##ᅳ
##ᅴ
##ᆷ
##ᆸ
##ᆺ
##ᆻ
##ᗜ
##ᵃ
##ᵉ
##ᵍ
##ᵏ
##ᵐ
##ᵒ
##ᵘ
##‖
##„
##†
##•
##‥
##‧
## 
##‰
##′
##″
##‹
##›
##※
##‿
##⁄
##ⁱ
##⁺
##ⁿ
##₁
##₃
##₄
##€
##№
##ⅰ
##ⅱ
##ⅲ
##ⅳ
##ⅴ
##↔
##↗
##↘
##⇒
##∀
##−
##∕
##∙
##√
##∞
##∟
##∠
##∣
##∩
##∮
##∶
##∼
##∽
##≈
##≒
##≡
##≤
##≥
##≦
##≧
##≪
##≫
##⊙
##⋅
##⋈
##⋯
##⌒
##①
##②
##③
##④
##⑤
##⑥
##⑦
##⑧
##⑨
##⑩
##⑴
##⑵
##⑶
##⑷
##⑸
##⒈
##⒉
##⒊
##⒋
##ⓒ
##ⓔ
##ⓘ
##━
##┃
##┆
##┊
##┌
##└
##├
##┣
##═
##║
##╚
##╞
##╠
##╭
##╮
##╯
##╰
##╱
##╳
##▂
##▃
##▅
##▇
##▉
##▋
##▌
##▍
##▎
##□
##▪
##▫
##▬
##△
##▶
##►
##▽
##◇
##◕
##◠
##◢
##◤
##☀
##☕
##☞
##☺
##☼
##♀
##♂
##♠
##♡
##♣
##♦
##♫
##♬
##✈
##✔
##✕
##✖
##✦
##✨
##✪
##✰
##✿
##❀
##➜
##➤
##⦿
##、
##。
##〃
##々
##〇
##〈
##〉
##《
##》
##「
##」
##『
##』
##【
##】
##〓
##〔
##〕
##〖
##〗
##〜
##〝
##〞
##ぃ
##ぇ
##ぬ
##ふ
##ほ
##む
##ゃ
##ゅ
##ゆ
##ょ
##゜
##ゝ
##ァ
##ゥ
##エ
##ォ
##ケ
##サ
##セ
##ソ
##ッ
##ニ
##ヌ
##ネ
##ノ
##ヘ
##モ
##ャ
##ヤ
##ュ
##ユ
##ョ
##ヨ
##ワ
##ヲ
##・
##ヽ
##ㄅ
##ㄆ
##ㄇ
##ㄉ
##ㄋ
##ㄌ
##ㄍ
##ㄎ
##ㄏ
##ㄒ
##ㄚ
##ㄛ
##ㄞ
##ㄟ
##ㄢ
##ㄤ
##ㄥ
##ㄧ
##ㄨ
##ㆍ
##㈦
##㊣
##㗎
##一
##丁
##七
##万
##丈
##三
##上
##下
##不
##与
##丐
##丑
##专
##且
##丕
##世
##丘
##丙
##业
##丛
##东
##丝
##丞
##丟
##両
##丢
##两
##严
##並
##丧
##丨
##个
##丫
##中
##丰
##串
##临
##丶
##丸
##丹
##为
##主
##丼
##丽
##举
##丿
##乂
##乃
##久
##么
##义
##之
##乌
##乍
##乎
##乏
##乐
##乒
##乓
##乔
##乖
##乗
##乘
##乙
##乜
##九
##乞
##也
##习
##乡
##书
##乩
##买
##乱
##乳
##乾
##亀
##亂
##了
##予
##争
##事
##二
##于
##亏
##云
##互
##五
##井
##亘
##亙
##亚
##些
##亜
##亞
##亟
##亡
##亢
##交
##亥
##亦
##产
##亨
##亩
##享
##京
##亭
##亮
##亲
##亳
##亵
##人
##亿
##什
##仁
##仃
##仄
##仅
##仆
##仇
##今
##介
##仍
##从
##仏
##仑
##仓
##仔
##仕
##他
##仗
##付
##仙
##仝
##仞
##仟
##代
##令
##以
##仨
##仪
##们
##仮
##仰
##仲
##件
##价
##任
##份
##仿
##企
##伉
##伊
##伍
##伎
##伏
##伐
##休
##伕
##众
##优
##伙
##会
##伝
##伞
##伟
##传
##伢
##伤
##伦
##伪
##伫
##伯
##估
##伴
##伶
##伸
##伺
##似
##伽
##佃
##但
##佇
##佈
##位
##低
##住
##佐
##佑
##体
##佔
##何
##佗
##佘
##余
##佚
##佛
##作
##佝
##佞
##佟
##你
##佢
##佣
##佤
##佥
##佩
##佬
##佯
##佰
##佳
##併
##佶
##佻
##佼
##使
##侃
##侄
##來
##侈
##例
##侍
##侏
##侑
##侖
##侗
##供
##依
##侠
##価
##侣
##侥
##侦
##侧
##侨
##侬
##侮
##侯
##侵
##侶
##侷
##便
##係
##促
##俄
##俊
##俎
##俏
##俐
##俑
##俗
##俘
##俚
##保
##俞
##俟
##俠
##信
##俨
##俩
##俪
##俬
##俭
##修
##俯
##俱
##俳
##俸
##俺
##俾
##倆
##倉
##個
##倌
##倍
##倏
##們
##倒
##倔
##倖
##倘
##候
##倚
##倜
##借
##倡
##値
##倦
##倩
##倪
##倫
##倬
##倭
##倶
##债
##值
##倾
##偃
##假
##偈
##偉
##偌
##偎
##偏
##偕
##做
##停
##健
##側
##偵
##偶
##偷
##偻
##偽
##偿
##傀
##傅
##傍
##傑
##傘
##備
##傚
##傢
##傣
##傥
##储
##傩
##催
##傭
##傲
##傳
##債
##傷
##傻
##傾
##僅
##働
##像
##僑
##僕
##僖
##僚
##僥
##僧
##僭
##僮
##僱
##僵
##價
##僻
##儀
##儂
##億
##儆
##儉
##儋
##儒
##儕
##儘
##償
##儡
##優
##儲
##儷
##儼
##儿
##兀
##允
##元
##兄
##充
##兆
##兇
##先
##光
##克
##兌
##免
##児
##兑
##兒
##兔
##兖
##党
##兜
##兢
##入
##內
##全
##兩
##八
##公
##六
##兮
##兰
##共
##兲
##关
##兴
##兵
##其
##具
##典
##兹
##养
##兼
##兽
##冀
##内
##円
##冇
##冈
##冉
##冊
##册
##再
##冏
##冒
##冕
##冗
##写
##军
##农
##冠
##冢
##冤
##冥
##冨
##冪
##冬
##冯
##冰
##冲
##决
##况
##冶
##冷
##冻
##冼
##冽
##冾
##净
##凄
##准
##凇
##凈
##凉
##凋
##凌
##凍
##减
##凑
##凛
##凜
##凝
##几
##凡
##凤
##処
##凪
##凭
##凯
##凰
##凱
##凳
##凶
##凸
##凹
##出
##击
##函
##凿
##刀
##刁
##刃
##分
##切
##刈
##刊
##刍
##刎
##刑
##划
##列
##刘
##则
##刚
##创
##初
##删
##判
##別
##刨
##利
##刪
##别
##刮
##到
##制
##刷
##券
##刹
##刺
##刻
##刽
##剁
##剂
##剃
##則
##剉
##削
##剋
##剌
##前
##剎
##剐
##剑
##剔
##剖
##剛
##剜
##剝
##剣
##剤
##剥
##剧
##剩
##剪
##副
##割
##創
##剷
##剽
##剿
##劃
##劇
##劈
##劉
##劊
##劍
##劏
##劑
##力
##劝
##办
##功
##加
##务
##劣
##动
##助
##努
##劫
##劭
##励
##劲
##劳
##労
##劵
##効
##劾
##势
##勁
##勃
##勇
##勉
##勋
##勐
##勒
##動
##勖
##勘
##務
##勛
##勝
##勞
##募
##勢
##勤
##勧
##勳
##勵
##勸
##勺
##勻
##勾
##勿
##匀
##包
##匆
##匈
##匍
##匐
##匕
##化
##北
##匙
##匝
##匠
##匡
##匣
##匪
##匮
##匯
##匱
##匹
##区
##医
##匾
##匿
##區
##十
##千
##卅
##升
##午
##卉
##半
##卍
##华
##协
##卑
##卒
##卓
##協
##单
##卖
##南
##単
##博
##卜
##卞
##卟
##占
##卡
##卢
##卤
##卦
##卧
##卫
##卮
##卯
##印
##危
##即
##却
##卵
##卷
##卸
##卻
##卿
##厂
##厄
##厅
##历
##厉
##压
##厌
##厕
##厘
##厚
##厝
##原
##厢
##厥
##厦
##厨
##厩
##厭
##厮
##厲
##厳
##去
##县
##叁
##参
##參
##又
##叉
##及
##友
##双
##反
##収
##发
##叔
##取
##受
##变
##叙
##叛
##叟
##叠
##叡
##叢
##口
##古
##句
##另
##叨
##叩
##只
##叫
##召
##叭
##叮
##可
##台
##叱
##史
##右
##叵
##叶
##号
##司
##叹
##叻
##叼
##叽
##吁
##吃
##各
##吆
##合
##吉
##吊
##吋
##同
##名
##后
##吏
##吐
##向
##吒
##吓
##吕
##吖
##吗
##君
##吝
##吞
##吟
##吠
##吡
##否
##吧
##吨
##吩
##含
##听
##吭
##吮
##启
##吱
##吳
##吴
##吵
##吶
##吸
##吹
##吻
##吼
##吽
##吾
##呀
##呂
##呃
##呆
##呈
##告
##呋
##呎
##呐
##呓
##呕
##呗
##员
##呛
##呜
##呢
##呤
##呦
##周
##呱
##呲
##味
##呵
##呷
##呸
##呻
##呼
##命
##咀
##咁
##咂
##咄
##咆
##咋
##和
##咎
##咏
##咐
##咒
##咔
##咕
##咖
##咗
##咘
##咙
##咚
##咛
##咣
##咤
##咦
##咧
##咨
##咩
##咪
##咫
##咬
##咭
##咯
##咱
##咲
##咳
##咸
##咻
##咽
##咿
##哀
##品
##哂
##哄
##哆
##哇
##哈
##哉
##哋
##哌
##响
##哎
##哏
##哐
##哑
##哒
##哔
##哗
##哟
##員
##哥
##哦
##哧
##哨
##哩
##哪
##哭
##哮
##哲
##哺
##哼
##哽
##唁
##唄
##唆
##唇
##唉
##唏
##唐
##唑
##唔
##唠
##唤
##唧
##唬
##售
##唯
##唰
##唱
##唳
##唷
##唸
##唾
##啃
##啄
##商
##啉
##啊
##問
##啓
##啕
##啖
##啜
##啞
##啟
##啡
##啤
##啥
##啦
##啧
##啪
##啫
##啬
##啮
##啰
##啱
##啲
##啵
##啶
##啷
##啸
##啻
##啼
##啾
##喀
##喂
##喃
##善
##喆
##喇
##喉
##喊
##喋
##喎
##喏
##喔
##喘
##喙
##喚
##喜
##喝
##喟
##喧
##喪
##喫
##喬
##單
##喰
##喱
##喲
##喳
##喵
##営
##喷
##喹
##喺
##喻
##喽
##嗅
##嗆
##嗇
##嗎
##嗑
##嗒
##嗓
##嗔
##嗖
##嗚
##嗜
##嗝
##嗟
##嗡
##嗣
##嗤
##嗦
##嗨
##嗪
##嗬
##嗯
##嗰
##嗲
##嗳
##嗶
##嗷
##嗽
##嘀
##嘅
##嘆
##嘈
##嘉
##嘌
##嘍
##嘎
##嘔
##嘖
##嘗
##嘘
##嘚
##嘛
##嘜
##嘞
##嘟
##嘢
##嘣
##嘤
##嘧
##嘩
##嘭
##嘮
##嘯
##嘰
##嘱
##嘲
##嘴
##嘶
##嘸
##嘹
##嘻
##嘿
##噁
##噌
##噎
##噓
##噔
##噗
##噙
##噜
##噠
##噢
##噤
##器
##噩
##噪
##噬
##噱
##噴
##噶
##噸
##噹
##噻
##噼
##嚀
##嚇
##嚎
##嚏
##嚐
##嚓
##嚕
##嚟
##嚣
##嚥
##嚨
##嚮
##嚴
##嚷
##嚼
##囂
##囉
##囊
##囍
##囑
##囔
##囗
##囚
##四
##囝
##回
##囟
##因
##囡
##团
##団
##囤
##囧
##囪
##囫
##园
##困
##囱
##囲
##図
##围
##囹
##固
##国
##图
##囿
##圃
##圄
##圆
##圈
##國
##圍
##圏
##園
##圓
##圖
##團
##圜
##土
##圣
##圧
##在
##圩
##圭
##地
##圳
##场
##圻
##圾
##址
##坂
##均
##坊
##坍
##坎
##坏
##坐
##坑
##块
##坚
##坛
##坝
##坞
##坟
##坠
##坡
##坤
##坦
##坨
##坪
##坯
##坳
##坵
##坷
##垂
##垃
##垄
##型
##垒
##垚
##垛
##垠
##垢
##垣
##垦
##垩
##垫
##垭
##垮
##垵
##埂
##埃
##埋
##城
##埔
##埕
##埗
##域
##埠
##埤
##埵
##執
##埸
##培
##基
##埼
##堀
##堂
##堃
##堅
##堆
##堇
##堑
##堕
##堙
##堡
##堤
##堪
##堯
##堰
##報
##場
##堵
##堺
##堿
##塊
##塌
##塑
##塔
##塗
##塘
##塚
##塞
##塢
##塩
##填
##塬
##塭
##塵
##塾
##墀
##境
##墅
##墉
##墊
##墒
##墓
##増
##墘
##墙
##墜
##增
##墟
##墨
##墩
##墮
##墳
##墻
##墾
##壁
##壅
##壆
##壇
##壊
##壑
##壓
##壕
##壘
##壞
##壟
##壢
##壤
##壩
##士
##壬
##壮
##壯
##声
##売
##壳
##壶
##壹
##壺
##壽
##处
##备
##変
##复
##夏
##夔
##夕
##外
##夙
##多
##夜
##够
##夠
##夢
##夥
##大
##天
##太
##夫
##夭
##央
##夯
##失
##头
##夷
##夸
##夹
##夺
##夾
##奂
##奄
##奇
##奈
##奉
##奋
##奎
##奏
##奐
##契
##奔
##奕
##奖
##套
##奘
##奚
##奠
##奢
##奥
##奧
##奪
##奬
##奮
##女
##奴
##奶
##奸
##她
##好
##如
##妃
##妄
##妆
##妇
##妈
##妊
##妍
##妒
##妓
##妖
##妘
##妙
##妝
##妞
##妣
##妤
##妥
##妨
##妩
##妪
##妮
##妲
##妳
##妹
##妻
##妾
##姆
##姉
##姊
##始
##姍
##姐
##姑
##姒
##姓
##委
##姗
##姚
##姜
##姝
##姣
##姥
##姦
##姨
##姪
##姫
##姬
##姹
##姻
##姿
##威
##娃
##娄
##娅
##娆
##娇
##娉
##娑
##娓
##娘
##娛
##娜
##娟
##娠
##娣
##娥
##娩
##娱
##娲
##娴
##娶
##娼
##婀
##婁
##婆
##婉
##婊
##婕
##婚
##婢
##婦
##婧
##婪
##婭
##婴
##婵
##婶
##婷
##婺
##婿
##媒
##媚
##媛
##媞
##媧
##媲
##媳
##媽
##媾
##嫁
##嫂
##嫉
##嫌
##嫑
##嫔
##嫖
##嫘
##嫚
##嫡
##嫣
##嫦
##嫩
##嫲
##嫵
##嫻
##嬅
##嬉
##嬌
##嬗
##嬛
##嬢
##嬤
##嬪
##嬰
##嬴
##嬷
##嬸
##嬿
##孀
##孃
##子
##孑
##孔
##孕
##孖
##字
##存
##孙
##孚
##孛
##孜
##孝
##孟
##孢
##季
##孤
##学
##孩
##孪
##孫
##孬
##孰
##孱
##孳
##孵
##學
##孺
##孽
##孿
##宁
##它
##宅
##宇
##守
##安
##宋
##完
##宏
##宓
##宕
##宗
##官
##宙
##定
##宛
##宜
##宝
##实
##実
##宠
##审
##客
##宣
##室
##宥
##宦
##宪
##宫
##宮
##宰
##害
##宴
##宵
##家
##宸
##容
##宽
##宾
##宿
##寂
##寄
##寅
##密
##寇
##富
##寐
##寒
##寓
##寛
##寝
##寞
##察
##寡
##寢
##寥
##實
##寧
##寨
##審
##寫
##寬
##寮
##寰
##寵
##寶
##寸
##对
##寺
##寻
##导
##対
##寿
##封
##専
##射
##将
##將
##專
##尉
##尊
##尋
##對
##導
##小
##少
##尔
##尕
##尖
##尘
##尚
##尝
##尤
##尧
##尬
##就
##尴
##尷
##尸
##尹
##尺
##尻
##尼
##尽
##尾
##尿
##局
##屁
##层
##屄
##居
##屆
##屈
##屉
##届
##屋
##屌
##屍
##屎
##屏
##屐
##屑
##展
##屜
##属
##屠
##屡
##屢
##層
##履
##屬
##屯
##山
##屹
##屿
##岀
##岁
##岂
##岌
##岐
##岑
##岔
##岖
##岗
##岘
##岙
##岚
##岛
##岡
##岩
##岫
##岬
##岭
##岱
##岳
##岷
##岸
##峇
##峋
##峒
##峙
##峡
##峤
##峥
##峦
##峨
##峪
##峭
##峯
##峰
##峴
##島
##峻
##峽
##崁
##崂
##崆
##崇
##崎
##崑
##崔
##崖
##崗
##崙
##崛
##崧
##崩
##崭
##崴
##崽
##嵇
##嵊
##嵋
##嵌
##嵐
##嵘
##嵩
##嵬
##嵯
##嶂
##嶄
##嶇
##嶋
##嶙
##嶺
##嶼
##嶽
##巅
##巍
##巒
##巔
##巖
##川
##州
##巡
##巢
##工
##左
##巧
##巨
##巩
##巫
##差
##己
##已
##巳
##巴
##巷
##巻
##巽
##巾
##巿
##币
##市
##布
##帅
##帆
##师
##希
##帐
##帑
##帕
##帖
##帘
##帚
##帛
##帜
##帝
##帥
##带
##帧
##師
##席
##帮
##帯
##帰
##帳
##帶
##帷
##常
##帼
##帽
##幀
##幂
##幄
##幅
##幌
##幔
##幕
##幟
##幡
##幢
##幣
##幫
##干
##平
##年
##并
##幸
##幹
##幺
##幻
##幼
##幽
##幾
##广
##庁
##広
##庄
##庆
##庇
##床
##序
##庐
##库
##应
##底
##庖
##店
##庙
##庚
##府
##庞
##废
##庠
##度
##座
##庫
##庭
##庵
##庶
##康
##庸
##庹
##庾
##廁
##廂
##廃
##廈
##廉
##廊
##廓
##廖
##廚
##廝
##廟
##廠
##廢
##廣
##廬
##廳
##延
##廷
##建
##廿
##开
##弁
##异
##弃
##弄
##弈
##弊
##弋
##式
##弑
##弒
##弓
##弔
##引
##弗
##弘
##弛
##弟
##张
##弥
##弦
##弧
##弩
##弭
##弯
##弱
##張
##強
##弹
##强
##弼
##弾
##彅
##彆
##彈
##彌
##彎
##归
##当
##录
##彗
##彙
##彝
##形
##彤
##彥
##彦
##彧
##彩
##彪
##彫
##彬
##彭
##彰
##影
##彷
##役
##彻
##彼
##彿
##往
##征
##径
##待
##徇
##很
##徉
##徊
##律
##後
##徐
##徑
##徒
##従
##徕
##得
##徘
##徙
##徜
##從
##徠
##御
##徨
##復
##循
##徬
##微
##徳
##徴
##徵
##德
##徹
##徼
##徽
##心
##必
##忆
##忌
##忍
##忏
##忐
##忑
##忒
##忖
##志
##忘
##忙
##応
##忠
##忡
##忤
##忧
##忪
##快
##忱
##念
##忻
##忽
##忿
##怀
##态
##怂
##怅
##怆
##怎
##怏
##怒
##怔
##怕
##怖
##怙
##怜
##思
##怠
##怡
##急
##怦
##性
##怨
##怪
##怯
##怵
##总
##怼
##恁
##恃
##恆
##恋
##恍
##恐
##恒
##恕
##恙
##恚
##恢
##恣
##恤
##恥
##恨
##恩
##恪
##恫
##恬
##恭
##息
##恰
##恳
##恵
##恶
##恸
##恺
##恻
##恼
##恿
##悄
##悅
##悉
##悌
##悍
##悔
##悖
##悚
##悟
##悠
##患
##悦
##您
##悩
##悪
##悬
##悯
##悱
##悲
##悴
##悵
##悶
##悸
##悻
##悼
##悽
##情
##惆
##惇
##惊
##惋
##惑
##惕
##惘
##惚
##惜
##惟
##惠
##惡
##惦
##惧
##惨
##惩
##惫
##惬
##惭
##惮
##惯
##惰
##惱
##想
##惴
##惶
##惹
##惺
##愁
##愆
##愈
##愉
##愍
##意
##愕
##愚
##愛
##愜
##感
##愣
##愤
##愧
##愫
##愷
##愿
##慄
##慈
##態
##慌
##慎
##慑
##慕
##慘
##慚
##慟
##慢
##慣
##慧
##慨
##慫
##慮
##慰
##慳
##慵
##慶
##慷
##慾
##憂
##憊
##憋
##憎
##憐
##憑
##憔
##憚
##憤
##憧
##憨
##憩
##憫
##憬
##憲
##憶
##憾
##懂
##懇
##懈
##應
##懊
##懋
##懑
##懒
##懦
##懲
##懵
##懶
##懷
##懸
##懺
##懼
##懾
##懿
##戀
##戈
##戊
##戌
##戍
##戎
##戏
##成
##我
##戒
##戕
##或
##战
##戚
##戛
##戟
##戡
##戦
##截
##戬
##戮
##戰
##戲
##戳
##戴
##戶
##户
##戸
##戻
##戾
##房
##所
##扁
##扇
##扈
##扉
##手
##才
##扎
##扑
##扒
##打
##扔
##払
##托
##扛
##扣
##扦
##执
##扩
##扪
##扫
##扬
##扭
##扮
##扯
##扰
##扱
##扳
##扶
##批
##扼
##找
##承
##技
##抄
##抉
##把
##抑
##抒
##抓
##投
##抖
##抗
##折
##抚
##抛
##抜
##択
##抟
##抠
##抡
##抢
##护
##报
##抨
##披
##抬
##抱
##抵
##抹
##押
##抽
##抿
##拂
##拄
##担
##拆
##拇
##拈
##拉
##拋
##拌
##拍
##拎
##拐
##拒
##拓
##拔
##拖
##拗
##拘
##拙
##拚
##招
##拜
##拟
##拡
##拢
##拣
##拥
##拦
##拧
##拨
##择
##括
##拭
##拮
##拯
##拱
##拳
##拴
##拷
##拼
##拽
##拾
##拿
##持
##挂
##指
##挈
##按
##挎
##挑
##挖
##挙
##挚
##挛
##挝
##挞
##挟
##挠
##挡
##挣
##挤
##挥
##挨
##挪
##挫
##振
##挲
##挹
##挺
##挽
##挾
##捂
##捅
##捆
##捉
##捋
##捌
##捍
##捎
##捏
##捐
##捕
##捞
##损
##捡
##换
##捣
##捧
##捨
##捩
##据
##捱
##捲
##捶
##捷
##捺
##捻
##掀
##掂
##掃
##掇
##授
##掉
##掌
##掏
##掐
##排
##掖
##掘
##掙
##掛
##掠
##採
##探
##掣
##接
##控
##推
##掩
##措
##掬
##掰
##掲
##掳
##掴
##掷
##掸
##掺
##揀
##揃
##揄
##揆
##揉
##揍
##描
##提
##插
##揖
##揚
##換
##握
##揣
##揩
##揪
##揭
##揮
##援
##揶
##揸
##揹
##揽
##搀
##搁
##搂
##搅
##損
##搏
##搐
##搓
##搔
##搖
##搗
##搜
##搞
##搡
##搪
##搬
##搭
##搵
##搶
##携
##搽
##摀
##摁
##摄
##摆
##摇
##摈
##摊
##摒
##摔
##摘
##摞
##摟
##摧
##摩
##摯
##摳
##摸
##摹
##摺
##摻
##撂
##撃
##撅
##撇
##撈
##撐
##撑
##撒
##撓
##撕
##撚
##撞
##撤
##撥
##撩
##撫
##撬
##播
##撮
##撰
##撲
##撵
##撷
##撸
##撻
##撼
##撿
##擀
##擁
##擂
##擄
##擅
##擇
##擊
##擋
##操
##擎
##擒
##擔
##擘
##據
##擞
##擠
##擡
##擢
##擦
##擬
##擰
##擱
##擲
##擴
##擷
##擺
##擼
##擾
##攀
##攏
##攒
##攔
##攘
##攙
##攜
##攝
##攞
##攢
##攣
##攤
##攥
##攪
##攫
##攬
##支
##收
##攸
##改
##攻
##放
##政
##故
##效
##敌
##敍
##敎
##敏
##救
##敕
##敖
##敗
##敘
##教
##敛
##敝
##敞
##敢
##散
##敦
##敬
##数
##敲
##整
##敵
##敷
##數
##斂
##斃
##文
##斋
##斌
##斎
##斐
##斑
##斓
##斗
##料
##斛
##斜
##斟
##斡
##斤
##斥
##斧
##斩
##斫
##斬
##断
##斯
##新
##斷
##方
##於
##施
##旁
##旃
##旅
##旋
##旌
##旎
##族
##旖
##旗
##无
##既
##日
##旦
##旧
##旨
##早
##旬
##旭
##旮
##旱
##时
##旷
##旺
##旻
##昀
##昂
##昆
##昇
##昉
##昊
##昌
##明
##昏
##易
##昔
##昕
##昙
##星
##映
##春
##昧
##昨
##昭
##是
##昱
##昴
##昵
##昶
##昼
##显
##晁
##時
##晃
##晉
##晋
##晌
##晏
##晒
##晓
##晔
##晕
##晖
##晗
##晚
##晝
##晞
##晟
##晤
##晦
##晨
##晩
##普
##景
##晰
##晴
##晶
##晷
##智
##晾
##暂
##暄
##暇
##暈
##暉
##暌
##暐
##暑
##暖
##暗
##暝
##暢
##暧
##暨
##暫
##暮
##暱
##暴
##暸
##暹
##曄
##曆
##曇
##曉
##曖
##曙
##曜
##曝
##曠
##曦
##曬
##曰
##曲
##曳
##更
##書
##曹
##曼
##曾
##替
##最
##會
##月
##有
##朋
##服
##朐
##朔
##朕
##朗
##望
##朝
##期
##朦
##朧
##木
##未
##末
##本
##札
##朮
##术
##朱
##朴
##朵
##机
##朽
##杀
##杂
##权
##杆
##杈
##杉
##李
##杏
##材
##村
##杓
##杖
##杜
##杞
##束
##杠
##条
##来
##杨
##杭
##杯
##杰
##東
##杳
##杵
##杷
##杼
##松
##板
##极
##构
##枇
##枉
##枋
##析
##枕
##林
##枚
##果
##枝
##枢
##枣
##枪
##枫
##枭
##枯
##枰
##枱
##枳
##架
##枷
##枸
##柄
##柏
##某
##柑
##柒
##染
##柔
##柘
##柚
##柜
##柞
##柠
##柢
##查
##柩
##柬
##柯
##柱
##柳
##柴
##柵
##査
##柿
##栀
##栃
##栄
##栅
##标
##栈
##栉
##栋
##栎
##栏
##树
##栓
##栖
##栗
##校
##栩
##株
##样
##核
##根
##格
##栽
##栾
##桀
##桁
##桂
##桃
##桅
##框
##案
##桉
##桌
##桎
##桐
##桑
##桓
##桔
##桜
##桠
##桡
##桢
##档
##桥
##桦
##桧
##桨
##桩
##桶
##桿
##梁
##梅
##梆
##梏
##梓
##梗
##條
##梟
##梢
##梦
##梧
##梨
##梭
##梯
##械
##梳
##梵
##梶
##检
##棂
##棄
##棉
##棋
##棍
##棒
##棕
##棗
##棘
##棚
##棟
##棠
##棣
##棧
##森
##棱
##棲
##棵
##棹
##棺
##椁
##椅
##椋
##植
##椎
##椒
##検
##椪
##椭
##椰
##椹
##椽
##椿
##楂
##楊
##楓
##楔
##楚
##楝
##楞
##楠
##楣
##楨
##楫
##業
##楮
##極
##楷
##楸
##楹
##楼
##楽
##概
##榄
##榆
##榈
##榉
##榔
##榕
##榖
##榛
##榜
##榨
##榫
##榭
##榮
##榱
##榴
##榷
##榻
##槁
##槃
##構
##槌
##槍
##槎
##槐
##槓
##様
##槛
##槟
##槤
##槭
##槲
##槳
##槻
##槽
##槿
##樁
##樂
##樊
##樑
##樓
##標
##樞
##樟
##模
##樣
##権
##横
##樫
##樯
##樱
##樵
##樸
##樹
##樺
##樽
##樾
##橄
##橇
##橋
##橐
##橘
##橙
##機
##橡
##橢
##橫
##橱
##橹
##橼
##檀
##檄
##檎
##檐
##檔
##檗
##檜
##檢
##檬
##檯
##檳
##檸
##檻
##櫃
##櫚
##櫛
##櫥
##櫸
##櫻
##欄
##權
##欒
##欖
##欠
##次
##欢
##欣
##欧
##欲
##欸
##欺
##欽
##款
##歆
##歇
##歉
##歌
##歎
##歐
##歓
##歙
##歛
##歡
##止
##正
##此
##步
##武
##歧
##歩
##歪
##歯
##歲
##歳
##歴
##歷
##歸
##歹
##死
##歼
##殁
##殃
##殆
##殇
##殉
##殊
##残
##殒
##殓
##殖
##殘
##殞
##殡
##殤
##殭
##殯
##殲
##殴
##段
##殷
##殺
##殼
##殿
##毀
##毁
##毂
##毅
##毆
##毋
##母
##毎
##每
##毒
##毓
##比
##毕
##毗
##毘
##毙
##毛
##毡
##毫
##毯
##毽
##氈
##氏
##氐
##民
##氓
##气
##氖
##気
##氙
##氛
##氟
##氡
##氢
##氣
##氤
##氦
##氧
##氨
##氪
##氫
##氮
##氯
##氰
##氲
##水
##氷
##永
##氹
##氾
##汀
##汁
##求
##汆
##汇
##汉
##汎
##汐
##汕
##汗
##汙
##汛
##汝
##汞
##江
##池
##污
##汤
##汨
##汩
##汪
##汰
##汲
##汴
##汶
##汹
##決
##汽
##汾
##沁
##沂
##沃
##沅
##沈
##沉
##沌
##沏
##沐
##沒
##沓
##沖
##沙
##沛
##沟
##没
##沢
##沣
##沥
##沦
##沧
##沪
##沫
##沭
##沮
##沱
##河
##沸
##油
##治
##沼
##沽
##沾
##沿
##況
##泄
##泉
##泊
##泌
##泓
##法
##泗
##泛
##泞
##泠
##泡
##波
##泣
##泥
##注
##泪
##泫
##泮
##泯
##泰
##泱
##泳
##泵
##泷
##泸
##泻
##泼
##泽
##泾
##洁
##洄
##洋
##洒
##洗
##洙
##洛
##洞
##津
##洩
##洪
##洮
##洱
##洲
##洵
##洶
##洸
##洹
##活
##洼
##洽
##派
##流
##浃
##浄
##浅
##浆
##浇
##浊
##测
##济
##浏
##浑
##浒
##浓
##浔
##浙
##浚
##浜
##浣
##浦
##浩
##浪
##浬
##浮
##浯
##浴
##海
##浸
##涂
##涅
##涇
##消
##涉
##涌
##涎
##涓
##涔
##涕
##涙
##涛
##涝
##涞
##涟
##涠
##涡
##涣
##涤
##润
##涧
##涨
##涩
##涪
##涮
##涯
##液
##涵
##涸
##涼
##涿
##淀
##淄
##淅
##淆
##淇
##淋
##淌
##淑
##淒
##淖
##淘
##淙
##淚
##淞
##淡
##淤
##淦
##淨
##淩
##淪
##淫
##淬
##淮
##深
##淳
##淵
##混
##淹
##淺
##添
##淼
##清
##済
##渉
##渊
##渋
##渍
##渎
##渐
##渔
##渗
##渙
##渚
##減
##渝
##渠
##渡
##渣
##渤
##渥
##渦
##温
##測
##渭
##港
##渲
##渴
##游
##渺
##渾
##湃
##湄
##湊
##湍
##湖
##湘
##湛
##湟
##湧
##湫
##湮
##湯
##湳
##湾
##湿
##満
##溃
##溅
##溉
##溏
##源
##準
##溜
##溝
##溟
##溢
##溥
##溧
##溪
##溫
##溯
##溱
##溴
##溶
##溺
##溼
##滁
##滂
##滄
##滅
##滇
##滋
##滌
##滑
##滓
##滔
##滕
##滙
##滚
##滝
##滞
##滟
##满
##滢
##滤
##滥
##滦
##滨
##滩
##滬
##滯
##滲
##滴
##滷
##滸
##滾
##滿
##漁
##漂
##漆
##漉
##漏
##漓
##演
##漕
##漠
##漢
##漣
##漩
##漪
##漫
##漬
##漯
##漱
##漲
##漳
##漸
##漾
##漿
##潆
##潇
##潋
##潍
##潑
##潔
##潘
##潛
##潜
##潞
##潟
##潢
##潤
##潦
##潧
##潭
##潮
##潰
##潴
##潸
##潺
##潼
##澀
##澄
##澆
##澈
##澍
##澎
##澗
##澜
##澡
##澤
##澧
##澱
##澳
##澹
##激
##濁
##濂
##濃
##濑
##濒
##濕
##濘
##濛
##濟
##濠
##濡
##濤
##濫
##濬
##濮
##濯
##濱
##濺
##濾
##瀅
##瀆
##瀉
##瀋
##瀏
##瀑
##瀕
##瀘
##瀚
##瀛
##瀝
##瀞
##瀟
##瀧
##瀨
##瀬
##瀰
##瀾
##灌
##灏
##灑
##灘
##灝
##灞
##灣
##火
##灬
##灭
##灯
##灰
##灵
##灶
##灸
##灼
##災
##灾
##灿
##炀
##炁
##炅
##炉
##炊
##炎
##炒
##炔
##炕
##炖
##炙
##炜
##炫
##炬
##炭
##炮
##炯
##炳
##炷
##炸
##点
##為
##炼
##炽
##烁
##烂
##烃
##烈
##烊
##烏
##烘
##烙
##烛
##烟
##烤
##烦
##烧
##烨
##烩
##烫
##烬
##热
##烯
##烷
##烹
##烽
##焉
##焊
##焕
##焖
##焗
##焘
##焙
##焚
##焜
##無
##焦
##焯
##焰
##焱
##然
##焼
##煅
##煉
##煊
##煌
##煎
##煒
##煖
##煙
##煜
##煞
##煤
##煥
##煦
##照
##煨
##煩
##煮
##煲
##煸
##煽
##熄
##熊
##熏
##熒
##熔
##熙
##熟
##熠
##熨
##熬
##熱
##熵
##熹
##熾
##燁
##燃
##燄
##燈
##燉
##燊
##燎
##燒
##燔
##燕
##燙
##燜
##營
##燥
##燦
##燧
##燭
##燮
##燴
##燻
##燼
##燿
##爆
##爍
##爐
##爛
##爪
##爬
##爭
##爰
##爱
##爲
##爵
##父
##爷
##爸
##爹
##爺
##爻
##爽
##爾
##牆
##片
##版
##牌
##牍
##牒
##牙
##牛
##牝
##牟
##牠
##牡
##牢
##牦
##牧
##物
##牯
##牲
##牴
##牵
##特
##牺
##牽
##犀
##犁
##犄
##犊
##犍
##犒
##犢
##犧
##犬
##犯
##状
##犷
##犸
##犹
##狀
##狂
##狄
##狈
##狎
##狐
##狒
##狗
##狙
##狞
##狠
##狡
##狩
##独
##狭
##狮
##狰
##狱
##狸
##狹
##狼
##狽
##猎
##猕
##猖
##猗
##猙
##猛
##猜
##猝
##猥
##猩
##猪
##猫
##猬
##献
##猴
##猶
##猷
##猾
##猿
##獄
##獅
##獎
##獐
##獒
##獗
##獠
##獣
##獨
##獭
##獰
##獲
##獵
##獷
##獸
##獺
##獻
##獼
##獾
##玄
##率
##玉
##王
##玑
##玖
##玛
##玟
##玠
##玥
##玩
##玫
##玮
##环
##现
##玲
##玳
##玷
##玺
##玻
##珀
##珂
##珅
##珈
##珉
##珊
##珍
##珏
##珐
##珑
##珙
##珞
##珠
##珣
##珥
##珩
##珪
##班
##珮
##珲
##珺
##現
##球
##琅
##理
##琇
##琉
##琊
##琍
##琏
##琐
##琛
##琢
##琥
##琦
##琨
##琪
##琬
##琮
##琰
##琲
##琳
##琴
##琵
##琶
##琺
##琼
##瑀
##瑁
##瑄
##瑋
##瑕
##瑗
##瑙
##瑚
##瑛
##瑜
##瑞
##瑟
##瑠
##瑣
##瑤
##瑩
##瑪
##瑯
##瑰
##瑶
##瑾
##璀
##璁
##璃
##璇
##璉
##璋
##璎
##璐
##璜
##璞
##璟
##璧
##璨
##環
##璽
##璿
##瓊
##瓏
##瓒
##瓜
##瓢
##瓣
##瓤
##瓦
##瓮
##瓯
##瓴
##瓶
##瓷
##甄
##甌
##甕
##甘
##甙
##甚
##甜
##生
##產
##産
##甥
##甦
##用
##甩
##甫
##甬
##甭
##甯
##田
##由
##甲
##申
##电
##男
##甸
##町
##画
##甾
##畀
##畅
##界
##畏
##畑
##畔
##留
##畜
##畝
##畢
##略
##畦
##番
##畫
##異
##畲
##畳
##畴
##當
##畸
##畹
##畿
##疆
##疇
##疊
##疏
##疑
##疔
##疖
##疗
##疙
##疚
##疝
##疟
##疡
##疣
##疤
##疥
##疫
##疮
##疯
##疱
##疲
##疳
##疵
##疸
##疹
##疼
##疽
##疾
##痂
##病
##症
##痈
##痉
##痊
##痍
##痒
##痔
##痕
##痘
##痙
##痛
##痞
##痠
##痢
##痣
##痤
##痧
##痨
##痪
##痫
##痰
##痱
##痴
##痹
##痺
##痼
##痿
##瘀
##瘁
##瘋
##瘍
##瘓
##瘘
##瘙
##瘟
##瘠
##瘡
##瘢
##瘤
##瘦
##瘧
##瘩
##瘪
##瘫
##瘴
##瘸
##瘾
##療
##癇
##癌
##癒
##癖
##癜
##癞
##癡
##癢
##癣
##癥
##癫
##癬
##癮
##癱
##癲
##癸
##発
##登
##發
##白
##百
##皂
##的
##皆
##皇
##皈
##皋
##皎
##皑
##皓
##皖
##皙
##皚
##皮
##皰
##皱
##皴
##皺
##皿
##盂
##盃
##盅
##盆
##盈
##益
##盎
##盏
##盐
##监
##盒
##盔
##盖
##盗
##盘
##盛
##盜
##盞
##盟
##盡
##監
##盤
##盥
##盧
##盪
##目
##盯
##盱
##盲
##直
##相
##盹
##盼
##盾
##省
##眈
##眉
##看
##県
##眙
##眞
##真
##眠
##眦
##眨
##眩
##眯
##眶
##眷
##眸
##眺
##眼
##眾
##着
##睁
##睇
##睏
##睐
##睑
##睛
##睜
##睞
##睡
##睢
##督
##睥
##睦
##睨
##睪
##睫
##睬
##睹
##睽
##睾
##睿
##瞄
##瞅
##瞇
##瞋
##瞌
##瞎
##瞑
##瞒
##瞓
##瞞
##瞟
##瞠
##瞥
##瞧
##瞩
##瞪
##瞬
##瞭
##瞰
##瞳
##瞻
##瞼
##瞿
##矇
##矍
##矗
##矚
##矛
##矜
##矢
##矣
##知
##矩
##矫
##短
##矮
##矯
##石
##矶
##矽
##矾
##矿
##码
##砂
##砌
##砍
##砒
##研
##砖
##砗
##砚
##砝
##砣
##砥
##砧
##砭
##砰
##砲
##破
##砷
##砸
##砺
##砼
##砾
##础
##硅
##硐
##硒
##硕
##硝
##硫
##硬
##确
##硯
##硼
##碁
##碇
##碉
##碌
##碍
##碎
##碑
##碓
##碗
##碘
##碚
##碛
##碟
##碣
##碧
##碩
##碰
##碱
##碳
##碴
##確
##碼
##碾
##磁
##磅
##磊
##磋
##磐
##磕
##磚
##磡
##磨
##磬
##磯
##磲
##磷
##磺
##礁
##礎
##礙
##礡
##礦
##礪
##礫
##礴
##示
##礼
##社
##祀
##祁
##祂
##祇
##祈
##祉
##祎
##祐
##祕
##祖
##祗
##祚
##祛
##祜
##祝
##神
##祟
##祠
##祢
##祥
##票
##祭
##祯
##祷
##祸
##祺
##祿
##禀
##禁
##禄
##禅
##禍
##禎
##福
##禛
##禦
##禧
##禪
##禮
##禱
##禹
##禺
##离
##禽
##禾
##禿
##秀
##私
##秃
##秆
##秉
##秋
##种
##科
##秒
##秘
##租
##秣
##秤
##秦
##秧
##秩
##秭
##积
##称
##秸
##移
##秽
##稀
##稅
##程
##稍
##税
##稔
##稗
##稚
##稜
##稞
##稟
##稠
##稣
##種
##稱
##稲
##稳
##稷
##稹
##稻
##稼
##稽
##稿
##穀
##穂
##穆
##穌
##積
##穎
##穗
##穢
##穩
##穫
##穴
##究
##穷
##穹
##空
##穿
##突
##窃
##窄
##窈
##窍
##窑
##窒
##窓
##窕
##窖
##窗
##窘
##窜
##窝
##窟
##窠
##窥
##窦
##窨
##窩
##窪
##窮
##窯
##窺
##窿
##竄
##竅
##竇
##竊
##立
##竖
##站
##竜
##竞
##竟
##章
##竣
##童
##竭
##端
##競
##竹
##竺
##竽
##竿
##笃
##笆
##笈
##笋
##笏
##笑
##笔
##笙
##笛
##笞
##笠
##符
##笨
##第
##笹
##笺
##笼
##筆
##等
##筊
##筋
##筍
##筏
##筐
##筑
##筒
##答
##策
##筛
##筝
##筠
##筱
##筲
##筵
##筷
##筹
##签
##简
##箇
##箋
##箍
##箏
##箐
##箔
##箕
##算
##箝
##管
##箩
##箫
##箭
##箱
##箴
##箸
##節
##篁
##範
##篆
##篇
##築
##篑
##篓
##篙
##篝
##篠
##篡
##篤
##篩
##篪
##篮
##篱
##篷
##簇
##簌
##簍
##簡
##簦
##簧
##簪
##簫
##簷
##簸
##簽
##簾
##簿
##籁
##籃
##籌
##籍
##籐
##籟
##籠
##籤
##籬
##籮
##籲
##米
##类
##籼
##籽
##粄
##粉
##粑
##粒
##粕
##粗
##粘
##粟
##粤
##粥
##粧
##粪
##粮
##粱
##粲
##粳
##粵
##粹
##粼
##粽
##精
##粿
##糅
##糊
##糍
##糕
##糖
##糗
##糙
##糜
##糞
##糟
##糠
##糧
##糬
##糯
##糰
##糸
##系
##糾
##紀
##紂
##約
##紅
##紉
##紊
##紋
##納
##紐
##紓
##純
##紗
##紘
##紙
##級
##紛
##紜
##素
##紡
##索
##紧
##紫
##紮
##累
##細
##紳
##紹
##紺
##終
##絃
##組
##絆
##経
##結
##絕
##絞
##絡
##絢
##給
##絨
##絮
##統
##絲
##絳
##絵
##絶
##絹
##綁
##綏
##綑
##經
##継
##続
##綜
##綠
##綢
##綦
##綫
##綬
##維
##綱
##網
##綴
##綵
##綸
##綺
##綻
##綽
##綾
##綿
##緊
##緋
##総
##緑
##緒
##緘
##線
##緝
##緞
##締
##緣
##編
##緩
##緬
##緯
##練
##緹
##緻
##縁
##縄
##縈
##縛
##縝
##縣
##縫
##縮
##縱
##縴
##縷
##總
##績
##繁
##繃
##繆
##繇
##繋
##織
##繕
##繚
##繞
##繡
##繩
##繪
##繫
##繭
##繳
##繹
##繼
##繽
##纂
##續
##纍
##纏
##纓
##纔
##纖
##纜
##纠
##红
##纣
##纤
##约
##级
##纨
##纪
##纫
##纬
##纭
##纯
##纰
##纱
##纲
##纳
##纵
##纶
##纷
##纸
##纹
##纺
##纽
##纾
##线
##绀
##练
##组
##绅
##细
##织
##终
##绊
##绍
##绎
##经
##绑
##绒
##结
##绔
##绕
##绘
##给
##绚
##绛
##络
##绝
##绞
##统
##绡
##绢
##绣
##绥
##绦
##继
##绩
##绪
##绫
##续
##绮
##绯
##绰
##绳
##维
##绵
##绶
##绷
##绸
##绻
##综
##绽
##绾
##绿
##缀
##缄
##缅
##缆
##缇
##缈
##缉
##缎
##缓
##缔
##缕
##编
##缘
##缙
##缚
##缜
##缝
##缠
##缢
##缤
##缥
##缨
##缩
##缪
##缭
##缮
##缰
##缱
##缴
##缸
##缺
##缽
##罂
##罄
##罌
##罐
##网
##罔
##罕
##罗
##罚
##罡
##罢
##罩
##罪
##置
##罰
##署
##罵
##罷
##罹
##羁
##羅
##羈
##羊
##羌
##美
##羔
##羚
##羞
##羟
##羡
##羣
##群
##羥
##羧
##羨
##義
##羯
##羲
##羸
##羹
##羽
##羿
##翁
##翅
##翊
##翌
##翎
##習
##翔
##翘
##翟
##翠
##翡
##翦
##翩
##翰
##翱
##翳
##翹
##翻
##翼
##耀
##老
##考
##耄
##者
##耆
##耋
##而
##耍
##耐
##耒
##耕
##耗
##耘
##耙
##耦
##耨
##耳
##耶
##耷
##耸
##耻
##耽
##耿
##聂
##聆
##聊
##聋
##职
##聒
##联
##聖
##聘
##聚
##聞
##聪
##聯
##聰
##聲
##聳
##聴
##聶
##職
##聽
##聾
##聿
##肃
##肄
##肅
##肆
##肇
##肉
##肋
##肌
##肏
##肓
##肖
##肘
##肚
##肛
##肝
##肠
##股
##肢
##肤
##肥
##肩
##肪
##肮
##肯
##肱
##育
##肴
##肺
##肽
##肾
##肿
##胀
##胁
##胃
##胄
##胆
##背
##胍
##胎
##胖
##胚
##胛
##胜
##胝
##胞
##胡
##胤
##胥
##胧
##胫
##胭
##胯
##胰
##胱
##胳
##胴
##胶
##胸
##胺
##能
##脂
##脅
##脆
##脇
##脈
##脉
##脊
##脍
##脏
##脐
##脑
##脓
##脖
##脘
##脚
##脛
##脣
##脩
##脫
##脯
##脱
##脲
##脳
##脸
##脹
##脾
##腆
##腈
##腊
##腋
##腌
##腎
##腐
##腑
##腓
##腔
##腕
##腥
##腦
##腩
##腫
##腭
##腮
##腰
##腱
##腳
##腴
##腸
##腹
##腺
##腻
##腼
##腾
##腿
##膀
##膈
##膊
##膏
##膑
##膘
##膚
##膛
##膜
##膝
##膠
##膦
##膨
##膩
##膳
##膺
##膻
##膽
##膾
##膿
##臀
##臂
##臃
##臆
##臉
##臊
##臍
##臓
##臘
##臟
##臣
##臥
##臧
##臨
##自
##臬
##臭
##至
##致
##臺
##臻
##臼
##臾
##舀
##舂
##舅
##舆
##與
##興
##舉
##舊
##舌
##舍
##舎
##舐
##舒
##舔
##舖
##舗
##舛
##舜
##舞
##舟
##航
##舫
##般
##舰
##舱
##舵
##舶
##舷
##舸
##船
##舺
##舾
##艇
##艋
##艘
##艙
##艦
##艮
##良
##艰
##艱
##色
##艳
##艷
##艹
##艺
##艾
##节
##芃
##芈
##芊
##芋
##芍
##芎
##芒
##芙
##芜
##芝
##芡
##芥
##芦
##芩
##芪
##芫
##芬
##芭
##芮
##芯
##花
##芳
##芷
##芸
##芹
##芻
##芽
##芾
##苁
##苄
##苇
##苋
##苍
##苏
##苑
##苒
##苓
##苔
##苕
##苗
##苛
##苜
##苞
##苟
##苡
##苣
##若
##苦
##苫
##苯
##英
##苷
##苹
##苻
##茁
##茂
##范
##茄
##茅
##茉
##茎
##茏
##茗
##茜
##茧
##茨
##茫
##茬
##茭
##茯
##茱
##茲
##茴
##茵
##茶
##茸
##茹
##茼
##荀
##荃
##荆
##草
##荊
##荏
##荐
##荒
##荔
##荖
##荘
##荚
##荞
##荟
##荠
##荡
##荣
##荤
##荥
##荧
##荨
##荪
##荫
##药
##荳
##荷
##荸
##荻
##荼
##荽
##莅
##莆
##莉
##莊
##莎
##莒
##莓
##莖
##莘
##莞
##莠
##莢
##莧
##莪
##莫
##莱
##莲
##莴
##获
##莹
##莺
##莽
##莿
##菀
##菁
##菅
##菇
##菈
##菊
##菌
##菏
##菓
##菖
##菘
##菜
##菟
##菠
##菡
##菩
##華
##菱
##菲
##菸
##菽
##萁
##萃
##萄
##萊
##萋
##萌
##萍
##萎
##萘
##萝
##萤
##营
##萦
##萧
##萨
##萩
##萬
##萱
##萵
##萸
##萼
##落
##葆
##葉
##著
##葚
##葛
##葡
##董
##葦
##葩
##葫
##葬
##葭
##葯
##葱
##葳
##葵
##葷
##葺
##蒂
##蒋
##蒐
##蒔
##蒙
##蒜
##蒞
##蒟
##蒡
##蒨
##蒲
##蒸
##蒹
##蒻
##蒼
##蒿
##蓁
##蓄
##蓆
##蓉
##蓋
##蓑
##蓓
##蓖
##蓝
##蓟
##蓦
##蓬
##蓮
##蓼
##蓿
##蔑
##蔓
##蔔
##蔗
##蔘
##蔚
##蔡
##蔣
##蔥
##蔫
##蔬
##蔭
##蔵
##蔷
##蔺
##蔻
##蔼
##蔽
##蕁
##蕃
##蕈
##蕉
##蕊
##蕎
##蕙
##蕤
##蕨
##蕩
##蕪
##蕭
##蕲
##蕴
##蕻
##蕾
##薄
##薅
##薇
##薈
##薊
##薏
##薑
##薔
##薙
##薛
##薦
##薨
##薩
##薪
##薬
##薯
##薰
##薹
##藉
##藍
##藏
##藐
##藓
##藕
##藜
##藝
##藤
##藥
##藩
##藹
##藻
##藿
##蘆
##蘇
##蘊
##蘋
##蘑
##蘚
##蘭
##蘸
##蘼
##蘿
##虎
##虏
##虐
##虑
##虔
##處
##虚
##虛
##虜
##虞
##號
##虢
##虧
##虫
##虬
##虱
##虹
##虻
##虽
##虾
##蚀
##蚁
##蚂
##蚊
##蚌
##蚓
##蚕
##蚜
##蚝
##蚣
##蚤
##蚩
##蚪
##蚯
##蚱
##蚵
##蛀
##蛆
##蛇
##蛊
##蛋
##蛎
##蛐
##蛔
##蛙
##蛛
##蛟
##蛤
##蛭
##蛮
##蛰
##蛳
##蛹
##蛻
##蛾
##蜀
##蜂
##蜃
##蜆
##蜇
##蜈
##蜊
##蜍
##蜒
##蜓
##蜕
##蜗
##蜘
##蜚
##蜜
##蜡
##蜢
##蜥
##蜱
##蜴
##蜷
##蜻
##蜿
##蝇
##蝈
##蝉
##蝌
##蝎
##蝕
##蝗
##蝙
##蝟
##蝠
##蝦
##蝨
##蝴
##蝶
##蝸
##蝼
##螂
##螃
##融
##螞
##螢
##螨
##螯
##螳
##螺
##蟀
##蟄
##蟆
##蟋
##蟎
##蟑
##蟒
##蟠
##蟬
##蟲
##蟹
##蟻
##蟾
##蠅
##蠍
##蠔
##蠕
##蠛
##蠟
##蠡
##蠢
##蠣
##蠱
##蠶
##蠹
##蠻
##血
##衄
##衅
##衆
##行
##衍
##術
##衔
##街
##衙
##衛
##衝
##衞
##衡
##衢
##衣
##补
##表
##衩
##衫
##衬
##衮
##衰
##衲
##衷
##衹
##衾
##衿
##袁
##袂
##袄
##袅
##袈
##袋
##袍
##袒
##袖
##袜
##袞
##袤
##袪
##被
##袭
##袱
##裁
##裂
##装
##裆
##裊
##裏
##裔
##裕
##裘
##裙
##補
##裝
##裟
##裡
##裤
##裨
##裱
##裳
##裴
##裸
##裹
##製
##裾
##褂
##複
##褐
##褒
##褓
##褔
##褚
##褥
##褪
##褫
##褲
##褶
##褻
##襁
##襄
##襟
##襠
##襪
##襬
##襯
##襲
##西
##要
##覃
##覆
##覇
##見
##規
##覓
##視
##覚
##覦
##覧
##親
##覬
##観
##覷
##覺
##覽
##觀
##见
##观
##规
##觅
##视
##览
##觉
##觊
##觎
##觐
##觑
##角
##觞
##解
##觥
##触
##觸
##言
##訂
##計
##訊
##討
##訓
##訕
##訖
##託
##記
##訛
##訝
##訟
##訣
##訥
##訪
##設
##許
##訳
##訴
##訶
##診
##註
##証
##詆
##詐
##詔
##評
##詛
##詞
##詠
##詡
##詢
##詣
##試
##詩
##詫
##詬
##詭
##詮
##詰
##話
##該
##詳
##詹
##詼
##誅
##誇
##誉
##誌
##認
##誓
##誕
##誘
##語
##誠
##誡
##誣
##誤
##誥
##誦
##誨
##說
##説
##読
##誰
##課
##誹
##誼
##調
##諄
##談
##請
##諏
##諒
##論
##諗
##諜
##諡
##諦
##諧
##諫
##諭
##諮
##諱
##諳
##諷
##諸
##諺
##諾
##謀
##謁
##謂
##謄
##謊
##謎
##謐
##謔
##謗
##謙
##講
##謝
##謠
##謨
##謬
##謹
##謾
##譁
##證
##譎
##譏
##識
##譙
##譚
##譜
##警
##譬
##譯
##議
##譲
##譴
##護
##譽
##讀
##變
##讓
##讚
##讞
##计
##订
##认
##讥
##讧
##讨
##让
##讪
##讫
##训
##议
##讯
##记
##讲
##讳
##讴
##讶
##讷
##许
##讹
##论
##讼
##讽
##设
##访
##诀
##证
##诃
##评
##诅
##识
##诈
##诉
##诊
##诋
##词
##诏
##译
##试
##诗
##诘
##诙
##诚
##诛
##话
##诞
##诟
##诠
##诡
##询
##诣
##诤
##该
##详
##诧
##诩
##诫
##诬
##语
##误
##诰
##诱
##诲
##说
##诵
##诶
##请
##诸
##诺
##读
##诽
##课
##诿
##谀
##谁
##调
##谄
##谅
##谆
##谈
##谊
##谋
##谌
##谍
##谎
##谏
##谐
##谑
##谒
##谓
##谔
##谕
##谗
##谘
##谙
##谚
##谛
##谜
##谟
##谢
##谣
##谤
##谥
##谦
##谧
##谨
##谩
##谪
##谬
##谭
##谯
##谱
##谲
##谴
##谶
##谷
##豁
##豆
##豇
##豈
##豉
##豊
##豌
##豎
##豐
##豔
##豚
##象
##豢
##豪
##豫
##豬
##豹
##豺
##貂
##貅
##貌
##貓
##貔
##貘
##貝
##貞
##負
##財
##貢
##貧
##貨
##販
##貪
##貫
##責
##貯
##貰
##貳
##貴
##貶
##買
##貸
##費
##貼
##貽
##貿
##賀
##賁
##賂
##賃
##賄
##資
##賈
##賊
##賑
##賓
##賜
##賞
##賠
##賡
##賢
##賣
##賤
##賦
##質
##賬
##賭
##賴
##賺
##購
##賽
##贅
##贈
##贊
##贍
##贏
##贓
##贖
##贛
##贝
##贞
##负
##贡
##财
##责
##贤
##败
##账
##货
##质
##贩
##贪
##贫
##贬
##购
##贮
##贯
##贰
##贱
##贲
##贴
##贵
##贷
##贸
##费
##贺
##贻
##贼
##贾
##贿
##赁
##赂
##赃
##资
##赅
##赈
##赊
##赋
##赌
##赎
##赏
##赐
##赓
##赔
##赖
##赘
##赚
##赛
##赝
##赞
##赠
##赡
##赢
##赣
##赤
##赦
##赧
##赫
##赭
##走
##赳
##赴
##赵
##赶
##起
##趁
##超
##越
##趋
##趕
##趙
##趟
##趣
##趨
##足
##趴
##趵
##趸
##趺
##趾
##跃
##跄
##跆
##跋
##跌
##跎
##跑
##跖
##跚
##跛
##距
##跟
##跡
##跤
##跨
##跩
##跪
##路
##跳
##践
##跷
##跹
##跺
##跻
##踉
##踊
##踌
##踏
##踐
##踝
##踞
##踟
##踢
##踩
##踪
##踮
##踱
##踴
##踵
##踹
##蹂
##蹄
##蹇
##蹈
##蹉
##蹊
##蹋
##蹑
##蹒
##蹙
##蹟
##蹣
##蹤
##蹦
##蹩
##蹬
##蹭
##蹲
##蹴
##蹶
##蹺
##蹼
##蹿
##躁
##躇
##躉
##躊
##躋
##躍
##躏
##躪
##身
##躬
##躯
##躲
##躺
##軀
##車
##軋
##軌
##軍
##軒
##軟
##転
##軸
##軼
##軽
##軾
##較
##載
##輒
##輓
##輔
##輕
##輛
##輝
##輟
##輩
##輪
##輯
##輸
##輻
##輾
##輿
##轄
##轅
##轆
##轉
##轍
##轎
##轟
##车
##轧
##轨
##轩
##转
##轭
##轮
##软
##轰
##轲
##轴
##轶
##轻
##轼
##载
##轿
##较
##辄
##辅
##辆
##辇
##辈
##辉
##辊
##辍
##辐
##辑
##输
##辕
##辖
##辗
##辘
##辙
##辛
##辜
##辞
##辟
##辣
##辦
##辨
##辩
##辫
##辭
##辮
##辯
##辰
##辱
##農
##边
##辺
##辻
##込
##辽
##达
##迁
##迂
##迄
##迅
##过
##迈
##迎
##运
##近
##返
##还
##这
##进
##远
##违
##连
##迟
##迢
##迤
##迥
##迦
##迩
##迪
##迫
##迭
##述
##迴
##迷
##迸
##迹
##迺
##追
##退
##送
##适
##逃
##逅
##逆
##选
##逊
##逍
##透
##逐
##递
##途
##逕
##逗
##這
##通
##逛
##逝
##逞
##速
##造
##逢
##連
##逮
##週
##進
##逵
##逶
##逸
##逻
##逼
##逾
##遁
##遂
##遅
##遇
##遊
##運
##遍
##過
##遏
##遐
##遑
##遒
##道
##達
##違
##遗
##遙
##遛
##遜
##遞
##遠
##遢
##遣
##遥
##遨
##適
##遭
##遮
##遲
##遴
##遵
##遶
##遷
##選
##遺
##遼
##遽
##避
##邀
##邁
##邂
##邃
##還
##邇
##邈
##邊
##邋
##邏
##邑
##邓
##邕
##邛
##邝
##邢
##那
##邦
##邨
##邪
##邬
##邮
##邯
##邰
##邱
##邳
##邵
##邸
##邹
##邺
##邻
##郁
##郅
##郊
##郎
##郑
##郜
##郝
##郡
##郢
##郤
##郦
##郧
##部
##郫
##郭
##郴
##郵
##郷
##郸
##都
##鄂
##鄉
##鄒
##鄔
##鄙
##鄞
##鄢
##鄧
##鄭
##鄰
##鄱
##鄲
##鄺
##酉
##酊
##酋
##酌
##配
##酐
##酒
##酗
##酚
##酝
##酢
##酣
##酥
##酩
##酪
##酬
##酮
##酯
##酰
##酱
##酵
##酶
##酷
##酸
##酿
##醃
##醇
##醉
##醋
##醍
##醐
##醒
##醚
##醛
##醜
##醞
##醣
##醪
##醫
##醬
##醮
##醯
##醴
##醺
##釀
##釁
##采
##釉
##释
##釋
##里
##重
##野
##量
##釐
##金
##釗
##釘
##釜
##針
##釣
##釦
##釧
##釵
##鈀
##鈉
##鈍
##鈎
##鈔
##鈕
##鈞
##鈣
##鈦
##鈪
##鈴
##鈺
##鈾
##鉀
##鉄
##鉅
##鉉
##鉑
##鉗
##鉚
##鉛
##鉤
##鉴
##鉻
##銀
##銃
##銅
##銑
##銓
##銖
##銘
##銜
##銬
##銭
##銮
##銳
##銷
##銹
##鋁
##鋅
##鋒
##鋤
##鋪
##鋰
##鋸
##鋼
##錄
##錐
##錘
##錚
##錠
##錢
##錦
##錨
##錫
##錮
##錯
##録
##錳
##錶
##鍊
##鍋
##鍍
##鍛
##鍥
##鍰
##鍵
##鍺
##鍾
##鎂
##鎊
##鎌
##鎏
##鎔
##鎖
##鎗
##鎚
##鎧
##鎬
##鎮
##鎳
##鏈
##鏖
##鏗
##鏘
##鏞
##鏟
##鏡
##鏢
##鏤
##鏽
##鐘
##鐮
##鐲
##鐳
##鐵
##鐸
##鐺
##鑄
##鑊
##鑑
##鑒
##鑣
##鑫
##鑰
##鑲
##鑼
##鑽
##鑾
##鑿
##针
##钉
##钊
##钎
##钏
##钒
##钓
##钗
##钙
##钛
##钜
##钝
##钞
##钟
##钠
##钡
##钢
##钣
##钤
##钥
##钦
##钧
##钨
##钩
##钮
##钯
##钰
##钱
##钳
##钴
##钵
##钺
##钻
##钼
##钾
##钿
##铀
##铁
##铂
##铃
##铄
##铅
##铆
##铉
##铎
##铐
##铛
##铜
##铝
##铠
##铡
##铢
##铣
##铤
##铨
##铩
##铬
##铭
##铮
##铰
##铲
##铵
##银
##铸
##铺
##链
##铿
##销
##锁
##锂
##锄
##锅
##锆
##锈
##锉
##锋
##锌
##锏
##锐
##锑
##错
##锚
##锟
##锡
##锢
##锣
##锤
##锥
##锦
##锭
##键
##锯
##锰
##锲
##锵
##锹
##锺
##锻
##镀
##镁
##镂
##镇
##镉
##镌
##镍
##镐
##镑
##镕
##镖
##镗
##镛
##镜
##镣
##镭
##镯
##镰
##镳
##镶
##長
##长
##門
##閃
##閉
##開
##閎
##閏
##閑
##閒
##間
##閔
##閘
##閡
##関
##閣
##閥
##閨
##閩
##閱
##閲
##閹
##閻
##閾
##闆
##闇
##闊
##闌
##闍
##闔
##闕
##闖
##闘
##關
##闡
##闢
##门
##闪
##闫
##闭
##问
##闯
##闰
##闲
##间
##闵
##闷
##闸
##闹
##闺
##闻
##闽
##闾
##阀
##阁
##阂
##阅
##阆
##阇
##阈
##阉
##阎
##阐
##阑
##阔
##阕
##阖
##阙
##阚
##阜
##队
##阡
##阪
##阮
##阱
##防
##阳
##阴
##阵
##阶
##阻
##阿
##陀
##陂
##附
##际
##陆
##陇
##陈
##陋
##陌
##降
##限
##陕
##陛
##陝
##陞
##陟
##陡
##院
##陣
##除
##陨
##险
##陪
##陰
##陲
##陳
##陵
##陶
##陷
##陸
##険
##陽
##隅
##隆
##隈
##隊
##隋
##隍
##階
##随
##隐
##隔
##隕
##隘
##隙
##際
##障
##隠
##隣
##隧
##隨
##險
##隱
##隴
##隶
##隸
##隻
##隼
##隽
##难
##雀
##雁
##雄
##雅
##集
##雇
##雉
##雋
##雌
##雍
##雎
##雏
##雑
##雒
##雕
##雖
##雙
##雛
##雜
##雞
##離
##難
##雨
##雪
##雯
##雰
##雲
##雳
##零
##雷
##雹
##電
##雾
##需
##霁
##霄
##霆
##震
##霈
##霉
##霊
##霍
##霎
##霏
##霑
##霓
##霖
##霜
##霞
##霧
##霭
##霰
##露
##霸
##霹
##霽
##霾
##靂
##靄
##靈
##青
##靓
##靖
##静
##靚
##靛
##靜
##非
##靠
##靡
##面
##靥
##靦
##革
##靳
##靴
##靶
##靼
##鞅
##鞋
##鞍
##鞏
##鞑
##鞘
##鞠
##鞣
##鞦
##鞭
##韆
##韋
##韌
##韓
##韜
##韦
##韧
##韩
##韬
##韭
##音
##韵
##韶
##韻
##響
##頁
##頂
##頃
##項
##順
##須
##頌
##預
##頑
##頒
##頓
##頗
##領
##頜
##頡
##頤
##頫
##頭
##頰
##頷
##頸
##頹
##頻
##頼
##顆
##題
##額
##顎
##顏
##顔
##願
##顛
##類
##顧
##顫
##顯
##顱
##顴
##页
##顶
##顷
##项
##顺
##须
##顼
##顽
##顾
##顿
##颁
##颂
##预
##颅
##领
##颇
##颈
##颉
##颊
##颌
##颍
##颐
##频
##颓
##颔
##颖
##颗
##题
##颚
##颛
##颜
##额
##颞
##颠
##颡
##颢
##颤
##颦
##颧
##風
##颯
##颱
##颳
##颶
##颼
##飄
##飆
##风
##飒
##飓
##飕
##飘
##飙
##飚
##飛
##飞
##食
##飢
##飨
##飩
##飪
##飯
##飲
##飼
##飽
##飾
##餃
##餅
##餉
##養
##餌
##餐
##餒
##餓
##餘
##餚
##餛
##餞
##餡
##館
##餮
##餵
##餾
##饅
##饈
##饋
##饌
##饍
##饑
##饒
##饕
##饗
##饞
##饥
##饨
##饪
##饬
##饭
##饮
##饯
##饰
##饱
##饲
##饴
##饵
##饶
##饷
##饺
##饼
##饽
##饿
##馀
##馁
##馄
##馅
##馆
##馈
##馋
##馍
##馏
##馒
##馔
##首
##馗
##香
##馥
##馨
##馬
##馭
##馮
##馳
##馴
##駁
##駄
##駅
##駆
##駐
##駒
##駕
##駛
##駝
##駭
##駱
##駿
##騁
##騎
##騏
##験
##騙
##騨
##騰
##騷
##驀
##驅
##驊
##驍
##驒
##驕
##驗
##驚
##驛
##驟
##驢
##驥
##马
##驭
##驮
##驯
##驰
##驱
##驳
##驴
##驶
##驷
##驸
##驹
##驻
##驼
##驾
##驿
##骁
##骂
##骄
##骅
##骆
##骇
##骈
##骊
##骋
##验
##骏
##骐
##骑
##骗
##骚
##骛
##骜
##骞
##骠
##骡
##骤
##骥
##骧
##骨
##骯
##骰
##骶
##骷
##骸
##骼
##髂
##髅
##髋
##髏
##髒
##髓
##體
##髖
##高
##髦
##髪
##髮
##髯
##髻
##鬃
##鬆
##鬍
##鬓
##鬚
##鬟
##鬢
##鬣
##鬥
##鬧
##鬱
##鬼
##魁
##魂
##魄
##魅
##魇
##魍
##魏
##魔
##魘
##魚
##魯
##魷
##鮑
##鮨
##鮪
##鮭
##鮮
##鯉
##鯊
##鯖
##鯛
##鯨
##鯰
##鯽
##鰍
##鰓
##鰭
##鰲
##鰻
##鰾
##鱈
##鱉
##鱔
##鱗
##鱷
##鱸
##鱼
##鱿
##鲁
##鲈
##鲍
##鲑
##鲛
##鲜
##鲟
##鲢
##鲤
##鲨
##鲫
##鲱
##鲲
##鲶
##鲷
##鲸
##鳃
##鳄
##鳅
##鳌
##鳍
##鳕
##鳖
##鳗
##鳝
##鳞
##鳥
##鳩
##鳳
##鳴
##鳶
##鴉
##鴕
##鴛
##鴦
##鴨
##鴻
##鴿
##鵑
##鵜
##鵝
##鵡
##鵬
##鵰
##鵲
##鶘
##鶩
##鶯
##鶴
##鷗
##鷲
##鷹
##鷺
##鸚
##鸞
##鸟
##鸠
##鸡
##鸢
##鸣
##鸥
##鸦
##鸨
##鸪
##鸭
##鸯
##鸳
##鸵
##鸽
##鸾
##鸿
##鹂
##鹃
##鹄
##鹅
##鹈
##鹉
##鹊
##鹌
##鹏
##鹑
##鹕
##鹘
##鹜
##鹞
##鹤
##鹦
##鹧
##鹫
##鹭
##鹰
##鹳
##鹵
##鹹
##鹼
##鹽
##鹿
##麂
##麋
##麒
##麓
##麗
##麝
##麟
##麥
##麦
##麩
##麴
##麵
##麸
##麺
##麻
##麼
##麽
##麾
##黃
##黄
##黍
##黎
##黏
##黑
##黒
##黔
##默
##黛
##黜
##黝
##點
##黠
##黨
##黯
##黴
##鼋
##鼎
##鼐
##鼓
##鼠
##鼬
##鼹
##鼻
##鼾
##齁
##齊
##齋
##齐
##齒
##齡
##齢
##齣
##齦
##齿
##龄
##龅
##龈
##龊
##龋
##龌
##龍
##龐
##龔
##龕
##龙
##龚
##龛
##龜
##龟
##︰
##︱
##︶
##︿
##﹁
##﹂
##﹍
##﹏
##﹐
##﹑
##﹒
##﹔
##﹕
##﹖
##﹗
##﹙
##﹚
##﹝
##﹞
##﹡
##﹣
##！
##＂
##＃
##＄
##％
##＆
##＇
##（
##）
##＊
##，
##－
##．
##／
##：
##；
##＜
##？
##＠
##［
##＼
##］
##＾
##＿
##｀
##ｆ
##ｈ
##ｊ
##ｕ
##ｗ
##ｚ
##｛
##｝
##｡
##｢
##｣
##､
##･
##ｯ
##ｰ
##ｲ
##ｸ
##ｼ
##ｽ
##ﾄ
##ﾉ
##ﾌ
##ﾗ
##ﾙ
##ﾝ
##ﾞ
##ﾟ
##￣
##￥
##👍
##🔥
##😂
##😎
[unused0]
[unused100]
[unused101]
[unused102]
[unused103]
[unused104]
[unused105]
[unused106]
[unused107]
[unused108]
[unused109]
[unused110]
[unused111]
[unused112]
[unused113]
[unused114]
[unused115]
[unused116]
[unused117]
[unused118]
[unused119]
[unused120]
[unused121]
[unused122]
[unused123]
[unused124]
[unused125]
[unused126]
[unused127]
[unused128]
[unused129]
[unused130]
[unused131]
[unused132]
[unused133]
[unused134]
[unused135]
[unused136]
[unused137]
[unused138]
[unused139]
[unused140]
[unused141]
[unused142]
[unused143]
[unused144]
[unused145]
[unused146]
[unused147]
[unused148]
[unused149]
[unused150]
[unused151]
[unused152]
[unused153]
[unused154]
[unused155]
[unused156]
[unused157]
[unused158]
[unused159]
[unused160]
[unused161]
[unused162]
[unused163]
[unused164]
[unused165]
[unused166]
[unused167]
[unused168]
[unused169]
[unused170]
[unused171]
[unused172]
[unused173]
[unused174]
[unused175]
[unused176]
[unused177]
[unused178]
[unused179]
[unused180]
[unused181]
[unused182]
[unused183]
[unused184]
[unused185]
[unused186]
[unused187]
[unused188]
[unused189]
[unused190]
[unused191]
[unused192]
[unused193]
[unused194]
[unused195]
[unused196]
[unused197]
[unused198]
[unused199]
[unused200]
[unused201]
[unused202]
[unused203]
[unused204]
[unused205]
[unused206]
[unused207]
[unused208]
[unused209]
[unused210]
[unused211]
[unused212]
[unused213]
[unused214]
[unused215]
[unused216]
[unused217]
[unused218]
[unused219]
[unused220]
[unused221]
[unused222]
[unused223]
[unused224]
[unused225]
[unused226]
[unused227]
[unused228]
[unused229]
[unused230]
[unused231]
[unused232]
[unused233]
[unused234]
[unused235]
[unused236]
[unused237]
[unused238]
[unused239]
[unused240]
[unused241]
[unused242]
[unused243]
[unused244]
[unused245]
[unused246]
[unused247]
[unused248]
[unused249]
[unused250]
[unused251]
[unused252]
[unused253]
[unused254]
[unused255]
[unused256]
[unused257]
[unused258]
[unused259]
[unused260]
[unused261]
[unused262]
[unused263]
[unused264]
[unused265]
[unused266]
[unused267]
[unused268]
[unused269]
[unused270]
[unused271]
[unused272]
[unused273]
[unused274]
[unused275]
[unused276]
[unused277]
[unused278]
[unused279]
[unused280]
[unused281]
[unused282]
[unused283]
[unused284]
[unused285]
[unused286]
[unused287]
[unused288]
[unused289]
[unused290]
[unused291]
[unused292]
[unused293]
[unused294]
[unused295]
[unused296]
[unused297]
[unused298]
[unused299]
[unused300]
[unused301]
[unused302]
[unused303]
[unused304]
[unused305]
[unused306]
[unused307]
[unused308]
[unused309]
[unused310]
[unused311]
[unused312]
[unused313]
[unused314]
[unused315]
[unused316]
[unused317]
[unused318]
[unused319]
[unused320]
[unused321]
[unused322]
[unused323]
[unused324]
[unused325]
[unused326]
[unused327]
[unused328]
[unused329]
[unused330]
[unused331]
[unused332]
[unused333]
[unused334]
[unused335]
[unused336]
[unused337]
[unused338]
[unused339]
[unused340]
[unused341]
[unused342]
[unused343]
[unused344]
[unused345]
[unused346]
[unused347]
[unused348]
[unused349]
[unused350]
[unused351]
[unused352]
[unused353]
[unused354]
[unused355]
[unused356]
[unused357]
[unused358]
[unused359]
[unused360]
[unused361]
[unused362]
[unused363]
[unused364]
[unused365]
[unused366]
[unused367]
[unused368]
[unused369]
[unused370]
[unused371]
[unused372]
[unused373]
[unused374]
[unused375]
[unused376]
[unused377]
[unused378]
[unused379]
[unused380]
[unused381]
[unused382]
[unused383]
[unused384]
[unused385]
[unused386]
[unused387]
[unused388]
[unused389]
[unused390]
[unused391]
[unused392]
[unused393]
[unused394]
[unused395]
[unused396]
[unused397]
[unused398]
[unused399]
[unused400]
[unused401]
[unused402]
[unused403]
[unused404]
[unused405]
[unused406]
[unused407]
[unused408]
[unused409]
[unused410]
[unused411]
[unused412]
[unused413]
[unused414]
[unused415]
[unused416]
[unused417]
[unused418]
[unused419]
[unused420]
[unused421]
[unused422]
[unused423]
[unused424]
[unused425]
[unused426]
[unused427]
[unused428]
[unused429]
[unused430]
[unused431]
[unused432]
[unused433]
[unused434]
[unused435]
[unused436]
[unused437]
[unused438]
[unused439]
[unused440]
[unused441]
[unused442]
[unused443]
[unused444]
[unused445]
[unused446]
[unused447]
[unused448]
[unused449]
[unused450]
[unused451]
[unused452]
[unused453]
[unused454]
[unused455]
[unused456]
[unused457]
[unused458]
[unused459]
[unused460]
[unused461]
[unused462]
[unused463]
[unused464]
[unused465]
[unused466]
[unused467]
[unused468]
[unused469]
[unused470]
[unused471]
[unused472]
[unused473]
[unused474]
[unused475]
[unused476]
[unused477]
[unused478]
[unused479]
[unused480]
[unused481]
[unused482]
[unused483]
[unused484]
[unused485]
[unused486]
[unused487]
[unused488]
[unused489]
[unused490]
[unused491]
[unused492]
[unused493]
[unused494]
[unused495]
[unused496]
[unused497]
[unused498]
[unused499]
[unused500]
[unused501]
[unused502]
[unused503]
[unused504]
[unused505]
[unused506]
[unused507]
[unused508]
[unused509]
[unused510]
[unused511]
[unused512]
[unused513]
[unused514]
[unused515]
[unused516]
[unused517]
[unused518]
[unused519]
[unused520]
[unused521]
[unused522]
[unused523]
[unused524]
[unused525]
[unused526]
[unused527]
[unused528]
[unused529]
[unused530]
[unused531]
[unused532]
[unused533]
[unused534]
[unused535]
[unused536]
[unused537]
[unused538]
[unused539]
[unused540]
[unused541]
[unused542]
[unused543]
[unused544]
[unused545]
[unused546]
[unused547]
[unused548]
[unused549]
[unused550]
[unused551]
[unused552]
[unused553]
[unused554]
[unused555]
[unused556]
[unused557]
[unused558]
[unused559]
[unused560]
[unused561]
[unused562]
[unused563]
[unused564]
[unused565]
[unused566]
[unused567]
[unused568]
[unused569]
[unused570]
[unused571]
[unused572]
[unused573]
[unused574]
[unused575]
[unused576]
[unused577]
[unused578]
[unused579]
[unused580]
[unused581]
[unused582]
[unused583]
[unused584]
[unused585]
[unused586]
[unused587]
[unused588]
[unused589]
[unused590]
[unused591]
[unused592]
[unused593]
[unused594]
[unused595]
[unused596]
[unused597]
[unused598]
[unused599]
[unused600]
[unused601]
[unused602]
[unused603]
[unused604]
[unused605]
[unused606]
[unused607]
[unused608]
[unused609]
[unused610]
[unused611]
[unused612]
[unused613]
[unused614]
[unused615]
[unused616]
[unused617]
[unused618]
[unused619]
[unused620]
[unused621]
[unused622]
[unused623]
[unused624]
[unused625]
[unused626]
[unused627]
[unused628]
[unused629]
[unused630]
[unused631]
[unused632]
[unused633]
[unused634]
[unused635]
[unused636]
[unused637]
[unused638]
[unused639]
[unused640]
[unused641]
[unused642]
[unused643]
[unused644]
[unused645]
[unused646]
[unused647]
[unused648]
[unused649]
[unused650]
[unused651]
[unused652]
[unused653]
[unused654]
[unused655]
[unused656]
[unused657]
[unused658]
[unused659]
[unused660]
[unused661]
[unused662]
[unused663]
[unused664]
[unused665]
[unused666]
[unused667]
[unused668]
[unused669]
[unused670]
[unused671]
[unused672]
[unused673]
[unused674]
[unused675]
[unused676]
[unused677]
[unused678]
[unused679]
[unused680]
[unused681]
[unused682]
[unused683]
[unused684]
[unused685]
[unused686]
[unused687]
[unused688]
[unused689]
[unused690]
[unused691]
[unused692]
[unused693]
[unused694]
[unused695]
[unused696]
[unused697]
[unused698]
[unused699]
[unused700]
[unused701]
[unused702]
[unused703]
[unused704]
[unused705]
[unused706]
[unused707]
[unused708]
[unused709]
[unused710]
[unused711]
[unused712]
[unused713]
[unused714]
[unused715]
[unused716]
[unused717]
[unused718]
[unused719]
[unused720]
[unused721]
[unused722]
[unused723]
[unused724]
[unused725]
[unused726]
[unused727]
[unused728]
[unused729]
[unused730]
[unused731]
[unused732]
[unused733]
[unused734]
[unused735]
[unused736]
[unused737]
[unused738]
[unused739]
[unused740]
[unused741]
[unused742]
[unused743]
[unused744]
[unused745]
[unused746]
[unused747]
[unused748]
[unused749]
[unused750]
[unused751]
[unused752]
[unused753]
[unused754]
[unused755]
[unused756]
[unused757]
[unused758]
[unused759]
[unused760]
[unused761]
[unused762]
[unused763]
[unused764]
[unused765]
[unused766]
[unused767]
[unused768]
[unused769]
[unused770]
[unused771]
[unused772]
[unused773]
[unused774]
[unused775]
[unused776]
[unused777]
[unused778]
[unused779]
[unused780]
[unused781]
[unused782]
[unused783]
[unused784]
[unused785]
[unused786]
[unused787]
[unused788]
[unused789]
[unused790]
[unused791]
[unused792]
[unused793]
[unused794]
[unused795]
[unused796]
[unused797]
[unused798]
[unused799]
[unused800]
[unused801]
[unused802]
[unused803]
[unused804]
[unused805]
[unused806]
[unused807]
[unused808]
[unused809]
[unused810]
[unused811]
[unused812]
[unused813]
[unused814]
[unused815]
[unused816]
[unused817]
[unused818]
[unused819]
[unused820]
[unused821]
[unused822]
[unused823]
[unused824]
[unused825]
[unused826]
[unused827]
[unused828]
[unused829]
[unused830]
[unused831]
[unused832]
[unused833]
[unused834]
[unused835]
[unused836]
[unused837]
[unused838]
[unused839]
[unused840]
[unused841]
[unused842]
[unused843]
[unused844]
[unused845]
[unused846]
[unused847]
[unused848]
[unused849]
[unused850]
[unused851]
[unused852]
[unused853]
[unused854]
[unused855]
[unused856]
[unused857]
[unused858]
[unused859]
[unused860]
[unused861]
[unused862]
[unused863]
[unused864]
[unused865]
[unused866]
[unused867]
[unused868]
[unused869]
[unused870]
[unused871]
[unused872]
[unused873]
[unused874]
[unused875]
[unused876]
[unused877]
[unused878]
[unused879]
[unused880]
[unused881]
[unused882]
[unused883]
[unused884]
[unused885]
[unused886]
[unused887]
[unused888]
[unused889]
[unused890]
[unused891]
[unused892]
[unused893]
[unused894]
[unused895]
[unused896]
[unused897]
[unused898]
[unused899]
[unused900]
[unused901]
[unused902]
[unused903]
[unused904]
[unused905]
[unused906]
[unused907]
[unused908]
[unused909]
[unused910]
[unused911]
[unused912]
[unused913]
[unused914]
[unused915]
[unused916]
[unused917]
[unused918]
[unused919]
[unused920]
[unused921]
[unused922]
[unused923]
[unused924]
[unused925]
[unused926]
[unused927]
[unused928]
[unused929]
[unused930]
[unused931]
[unused932]
[unused933]
[unused934]
[unused935]
[unused936]
[unused937]
[unused938]
[unused939]
[unused940]
[unused941]
[unused942]
[unused943]
[unused944]
[unused945]
[unused946]
[unused947]
[unused948]
[unused949]
[unused950]
[unused951]
[unused952]
[unused953]
[unused954]
[unused955]
[unused956]
[unused957]
[unused958]
[unused959]
[unused960]
[unused961]
[unused962]
[unused963]
[unused964]
[unused965]
[unused966]
[unused967]
[unused968]
[unused969]
[unused970]
[unused971]
[unused972]
[unused973]
[unused974]
[unused975]
[unused976]
[unused977]
[unused978]
[unused979]
[unused980]
[unused981]
[unused982]
[unused983]
[unused984]
[unused985]
[unused986]
[unused987]
[unused988]
[unused989]
[unused990]
[unused991]
[unused992]
[unused993]
`
¡
¢
¦
¨
ª
¬
´
¶
½
¾
¿
ð
þ
ħ
ı
ł
œ
ƒ
ɐ
ɑ
ɒ
ɕ
ɛ
ɣ
ɨ
ɪ
ɫ
ɬ
ɯ
ɲ
ɴ
ɹ
ɾ
ʀ
ʁ
ʂ
ʃ
ʉ
ʊ
ʋ
ʌ
ʎ
ʐ
ʑ
ʒ
ʔ
ʲ
ʳ
ʷ
ʸ
ʻ
ʼ
ʾ
ʿ
ˡ
ˣ
ˤ
ζ
ξ
щ
ъ
э
ю
ђ
є
ј
љ
њ
ћ
ӏ
ա
բ
գ
դ
ե
թ
ի
լ
կ
հ
մ
յ
ն
ո
պ
ս
վ
տ
ր
ւ
ք
־
א
ב
ג
ד
ה
ו
ז
ח
ט
י
ך
כ
ל
ם
מ
ן
נ
ס
ע
ף
פ
ץ
צ
ק
ר
ש
ת
،
ء
ث
ج
ح
خ
ذ
ز
ش
ص
ض
ط
ظ
غ
ـ
ف
ق
ك
ى
ٹ
پ
چ
ک
گ
ں
ھ
ہ
ی
ے
अ
आ
उ
ए
क
ख
ग
च
ज
ट
ड
ण
त
थ
द
ध
न
प
ब
भ
म
य
र
ल
व
श
ष
स
ह
ा
ि
ी
ो
।
॥
ং
অ
আ
ই
উ
এ
ও
ক
খ
গ
চ
ছ
জ
ট
ড
ণ
ত
থ
দ
ধ
ন
প
ব
ভ
ম
য
র
ল
শ
ষ
স
হ
া
ি
ী
ে
க
ச
ட
த
ந
ன
ப
ம
ய
ர
ல
ள
வ
ா
ி
ு
ே
ை
ನ
ರ
ಾ
ක
ය
ර
ල
ව
ා
ต
ท
พ
ล
ว
ส
།
ག
ང
ད
ན
པ
བ
མ
འ
ར
ལ
ས
မ
ა
ბ
გ
დ
ე
ვ
თ
ი
კ
ლ
მ
ნ
ო
რ
ს
ტ
უ
ᄊ
ᴬ
ᴮ
ᴰ
ᴵ
ᴺ
ᵀ
ᵇ
ᵈ
ᵖ
ᵗ
ᵢ
ᵣ
ᵤ
ᵥ
ᶜ
ᶠ
‐
‑
‒
–
—
―
‘
’
‚
“
”
‡
…
⁰
⁴
⁵
⁶
⁷
⁸
⁹
⁻
₀
₅
₆
₇
₈
₉
₊
₍
₎
ₐ
ₑ
ₒ
ₓ
ₕ
ₖ
ₗ
ₘ
ₙ
ₚ
ₛ
ₜ
₤
₩
₱
₹
ℓ
ℝ
⅓
⅔
↦
⇄
⇌
∂
∅
∆
∇
∈
∗
∘
∧
∨
∪
⊂
⊆
⊕
⊗
☉
♭
♯
⟨
⟩
ⱼ
⺩
⺼
⽥
亻
宀
彳
忄
扌
氵
疒
糹
訁
辶
阝
龸
ﬁ
ﬂ
had
were
which
him
their
been
would
then
them
could
during
through
between
while
later
around
did
such
being
used
against
many
both
these
known
until
even
didn
because
born
since
still
became
any
including
took
same
each
called
much
however
four
another
found
won
going
away
hand
several
following
released
played
began
district
those
held
own
early
league
government
came
based
thought
looked
along
went
few
father
former
located
got
though
every
century
without
within
building
large
named
started
once
should
built
british
death
moved
door
need
president
wasn
although
due
major
died
third
knew
asked
turned
wanted
together
received
son
served
different
behind
himself
felt
members
football
near
having
saw
mother
army
front
late
hands
put
division
across
told
often
ever
french
six
include
tell
among
species
really
according
half
original
gave
making
enough
opened
must
included
given
german
woman
community
might
million
court
short
round
seen
always
become
sure
almost
director
council
career
things
using
couldn
better
students
married
nothing
worked
others
record
anything
continued
give
military
established
returned
does
written
thing
feet
far
already
championship
western
department
role
various
production
television
produced
working
region
present
period
looking
least
total
england
wife
per
brother
soon
political
taken
created
further
able
reached
joined
upon
done
important
either
appeared
position
ground
lead
election
arms
police
instead
words
moment
someone
announced
less
wrote
past
followed
founded
finally
india
taking
records
considered
northern
toward
european
outside
described
track
playing
heard
professional
australia
miles
yet
trying
blood
southern
maybe
everything
mouth
race
recorded
above
daughter
points
middle
move
tried
elected
closed
ten
minister
chief
person
similar
brought
rest
formed
floor
doing
killed
training
needed
turn
finished
railway
rather
sent
example
ran
term
coming
currently
forces
despite
areas
fact
dead
originally
germany
probably
developed
pulled
stood
signed
songs
child
eventually
met
average
teams
minutes
current
kind
decided
usually
eastern
seemed
episode
bed
added
indian
route
available
throughout
addition
appointed
eight
construction
mean
remained
schools
sometimes
events
possible
australian
forward
debut
seat
performance
committee
features
character
herself
lot
russian
range
hours
sold
quickly
directed
guitar
performed
players
smile
myself
placed
province
towards
wouldn
leading
whole
designed
census
europe
attack
japanese
getting
alone
lower
wide
hospital
believe
changed
sister
gone
hadn
ship
studies
academy
shot
below
involved
kept
largest
especially
beginning
movement
section
female
professor
lord
longer
walked
actually
civil
families
thus
aircraft
completed
includes
captain
fight
vocals
featured
fourth
officer
hear
means
medical
groups
lips
competition
entire
lived
leaving
federal
tournament
passed
independent
kingdom
spent
fine
doesn
reported
fall
raised
itself
replaced
leader
theatre
whose
parents
spanish
canadian
degree
writing
awarded
higher
coast
provided
senior
organization
stopped
onto
countries
parts
conference
interest
saying
allowed
earlier
matter
winning
try
happened
moving
los
breath
nearly
mid
certain
italian
african
standing
fell
artist
shows
deal
mine
industry
everyone
republic
provide
student
primary
owned
older
heavy
1st
makes
attention
anyone
africa
stated
length
ended
fingers
command
staff
foreign
opening
governor
okay
medal
kill
introduced
chest
hell
feeling
success
meet
reason
meeting
novel
trade
buildings
guy
goal
native
husband
previously
entered
producer
operations
takes
covered
forced
roman
complete
successful
texas
cold
traditional
films
clear
approximately
nine
prince
question
tracks
ireland
regional
personal
operation
economic
holding
twenty
additional
hour
regular
historic
places
whom
shook
km²
secretary
prior
scored
units
ask
property
ready
immediately
month
listed
contract
themselves
lines
navy
writer
meant
runs
practice
championships
singer
commission
required
starting
generally
giving
attended
couple
stand
catholic
caught
executive
thinking
chair
quite
shoulder
hope
decision
plays
defeated
municipality
whether
offered
slowly
pain
direction
mission
mostly
noted
individual
managed
lives
plant
helped
except
studied
computer
figure
relationship
issue
significant
loss
smiled
gun
highest
male
bring
goals
mexico
problem
distance
commercial
completely
location
annual
famous
neck
caused
italy
understand
greek
highway
wrong
comes
appearance
issues
musical
companies
castle
income
assembly
bass
initially
parliament
artists
experience
particular
walk
foot
engineering
talking
dropped
boys
stars
remember
carried
train
stadium
angeles
evidence
becoming
assistant
soviet
upper
youth
reach
actor
numerous
nodded
arrived
minute
believed
complex
victory
associated
temple
chance
perhaps
bishop
launched
particularly
retired
subject
prize
contains
yeah
theory
empire
suddenly
waiting
trust
recording
terms
champion
religious
zealand
names
2nd
ancient
corner
represented
legal
justice
cause
watched
brothers
material
changes
simply
response
answer
historical
stories
straight
feature
increased
administration
virginia
activities
cultural
overall
winner
programs
basketball
legs
guard
cast
doctor
flight
results
remains
cost
effect
winter
larger
islands
problems
chairman
grew
commander
isn
failed
selected
hurt
fort
regiment
majority
plans
shown
pretty
irish
characters
directly
scene
likely
operated
allow
matches
looks
houses
fellow
marriage
rules
florida
expected
nearby
congress
peace
recent
wait
subsequently
variety
serving
agreed
poor
attempt
wood
democratic
rural
mile
appears
township
soldiers
##ized
pennsylvania
closer
fighting
claimed
score
physical
filled
genus
specific
sitting
mom
therefore
supported
status
fear
cases
meaning
wales
minor
spain
vice
parish
separate
horse
fifth
remaining
branch
presented
stared
uses
forms
baseball
exactly
choice
discovered
composed
truth
russia
dad
ring
referred
numbers
greater
metres
slightly
direct
increase
responsible
crew
rule
trees
troops
broke
goes
individuals
hundred
weight
creek
sleep
defense
provides
ordered
jewish
safe
judge
whatever
corps
realized
growing
cities
gaze
lies
spread
letter
showed
situation
mayor
transport
watching
workers
extended
expression
normal
chart
multiple
border
mrs
walls
piano
heat
cannot
earned
products
drama
era
authority
seasons
join
grade
difficult
territory
mainly
stations
squadron
stepped
iron
19th
serve
appear
speak
broken
charge
knowledge
kilometres
removed
ships
campus
pushed
britain
leaves
recently
boston
latter
acquired
poland
quality
officers
presence
planned
nations
mass
broadcast
influence
wild
emperor
electric
headed
ability
promoted
yellow
ministry
throat
smaller
politician
latin
spoke
cars
males
lack
acting
seeing
consists
estate
pressure
newspaper
olympics
conditions
beat
elements
walking
vote
needs
carolina
featuring
levels
francisco
purpose
females
dutch
duke
ahead
gas
safety
serious
turning
highly
lieutenant
firm
amount
mixed
proposed
perfect
agreement
affairs
3rd
seconds
contemporary
paid
prison
label
administrative
intended
constructed
academic
teacher
races
formerly
nation
issued
shut
drums
housing
seems
graduated
mentioned
picked
recognized
shortly
protection
picture
notable
elections
1980s
loved
percent
racing
elizabeth
volume
hockey
beside
settled
competed
replied
drew
actress
marine
scotland
steel
glanced
farm
risk
tonight
positive
singles
effects
gray
screen
residents
sides
none
secondary
literature
polish
destroyed
flying
founder
households
lay
reserve
industrial
younger
approach
appearances
ones
finish
powerful
fully
growth
honor
jersey
projects
revealed
infantry
pair
equipment
visit
evening
grant
effort
treatment
buried
republican
primarily
bottom
owner
1970s
israel
gives
remain
spot
produce
champions
accepted
ways
##ally
losing
split
capacity
basis
trial
questions
20th
guess
officially
memorial
naval
initial
##ization
whispered
median
engineer
sydney
columbia
strength
tears
senate
asian
draw
warm
supposed
transferred
leaned
candidate
escape
mountains
potential
activity
seem
traffic
murder
slow
orchestra
haven
agency
taught
website
comedy
unable
storm
planning
albums
rugby
environment
scientific
grabbed
protect
boat
typically
damage
principal
divided
dedicated
ohio
pick
fought
driver
empty
shoulders
sort
thank
berlin
prominent
account
freedom
necessary
efforts
headquarters
follows
alongside
suggested
operating
steps
technical
begin
easily
teeth
speaking
settlement
scale
renamed
enemy
semi
joint
compared
scottish
leadership
analysis
offers
georgia
pieces
captured
animal
deputy
organized
combined
method
challenge
1960s
huge
wants
battalion
sons
rise
crime
types
facilities
telling
platform
sit
1990s
tells
assigned
pull
commonly
alive
letters
concept
conducted
wearing
happen
bought
becomes
holy
gets
defeat
languages
purchased
occurred
titled
declared
applied
sciences
concert
sounds
jazz
brain
painting
fleet
tax
michigan
animals
leaders
episodes
birth
clubs
palace
critical
refused
fair
leg
laughed
returning
surrounding
participated
formation
lifted
pointed
connected
rome
medicine
laid
powers
tall
shared
focused
knowing
yards
entrance
falls
calling
sources
chosen
beneath
resources
yard
nominated
silence
defined
gained
thirty
bodies
adopted
christmas
widely
register
apart
iran
premier
serves
unknown
parties
generation
continues
fields
brigade
quiet
teaching
clothes
impact
weapons
partner
flat
theater
relations
plants
suffered
begins
seats
armed
models
worth
laws
communities
classes
background
knows
thanks
quarter
reaching
humans
carry
killing
format
setting
architecture
disease
railroad
possibly
arthur
thoughts
doors
density
crowd
illinois
stomach
tone
unique
reports
anyway
liberal
vehicle
thick
dry
drug
faced
largely
facility
theme
holds
creation
strange
colonel
revolution
politics
turns
silent
rail
relief
independence
combat
shape
determined
sales
learned
4th
finger
providing
heritage
fiction
situated
designated
allowing
hosted
sight
interview
estimated
reduced
toronto
footballer
keeping
guys
damn
claim
motion
sixth
stayed
rear
receive
handed
twelve
dress
audience
granted
brazil
spirit
##ated
noticed
olympic
representative
tight
trouble
reviews
drink
vampire
missing
roles
ranked
newly
household
finals
critics
phase
massachusetts
pilot
unlike
philadelphia
bright
guns
crown
organizations
roof
respectively
clearly
tongue
marked
circle
bronze
expanded
sexual
supply
yourself
inspired
labour
reference
draft
connection
reasons
driving
jesus
cells
entry
neither
trail
claims
atlantic
orders
labor
nose
afraid
identified
intelligence
calls
cancer
attacked
passing
positions
imperial
grey
swedish
avoid
extra
uncle
covers
allows
surprise
materials
fame
hunter
citizens
figures
environmental
confirmed
shit
titles
performing
difference
acts
attacks
existing
votes
opportunity
nor
entirely
trains
opposite
pakistan
develop
resulted
representatives
actions
reality
pressed
barely
conversation
faculty
northwest
ends
documentary
nuclear
stock
sets
eat
alternative
resulting
creating
surprised
cemetery
drop
finding
cricket
streets
tradition
ride
ear
explained
composer
injury
apartment
municipal
educational
occupied
netherlands
clean
billion
constitution
learn
maximum
classical
lose
opposition
ontario
hills
rolled
ending
drawn
permanent
lewis
sites
chamber
scoring
height
lyrics
staring
officials
snow
oldest
qualified
interior
apparently
succeeded
thousand
dinner
lights
existence
heavily
greatest
conservative
send
bowl
catch
duty
speech
authorities
princess
performances
versions
shall
graduate
pictures
effective
remembered
poetry
desk
crossed
starring
starts
passenger
sharp
acres
ass
weather
falling
rank
fund
supporting
adult
heads
southeast
lane
condition
transfer
prevent
regions
earl
federation
relatively
answered
besides
obtained
portion
reaction
liked
peak
counter
religion
chain
rare
convention
aid
lie
vehicles
perform
squad
wonder
lying
crazy
sword
attempted
centuries
weren
philosophy
interested
sweden
wolf
frequently
abandoned
literary
alliance
task
entitled
threw
promotion
tiny
soccer
visited
achieved
defence
internal
persian
methods
arrested
otherwise
programming
villages
elementary
districts
rooms
criminal
conflict
worry
trained
attempts
waited
signal
truck
subsequent
programme
communist
faith
sector
carrying
laugh
controlled
korean
showing
origin
fuel
evil
brief
identity
darkness
pool
missed
publication
wings
invited
briefly
standards
kissed
ideas
climate
causing
walter
worse
albert
winners
desire
aged
northeast
dangerous
gate
doubt
wooden
poet
rising
funding
communications
communication
violence
copies
prepared
investigation
skills
pulling
containing
ultimately
offices
singing
understanding
tomorrow
christ
ward
pope
stands
5th
flow
studios
aired
commissioned
contained
exist
americans
wrestling
approved
kid
employed
respect
suit
asking
increasing
frame
angry
selling
1950s
thin
finds
temperature
statement
ali
explain
inhabitants
towns
extensive
narrow
flowers
promise
somewhere
closely
bureau
cape
weekly
presidential
legislative
launch
founding
artillery
strike
un
institutions
roll
writers
landing
chose
anymore
attorney
billboard
receiving
agricultural
breaking
sought
dave
admitted
lands
mexican
##bury
specifically
hole
moscow
roads
accident
proved
struck
guards
stuff
slid
expansion
melbourne
opposed
sub
southwest
architect
failure
plane
tank
listen
regarding
wet
introduction
metropolitan
fighter
inch
grown
gene
anger
fixed
khan
domestic
worldwide
chapel
mill
functions
examples
developing
turkey
hits
pocket
antonio
papers
grow
unless
circuit
18th
concerned
attached
journalist
selection
journey
converted
provincial
painted
hearing
aren
bands
negative
aside
wondered
knight
lap
noise
billy
shooting
bedroom
priest
resistance
motor
homes
sounded
giant
scenes
equal
comic
patients
hidden
solid
actual
bringing
afternoon
touched
funds
consisted
marie
canal
treaty
turkish
recognition
residence
cathedral
broad
knees
incident
shaped
fired
norwegian
handle
cheek
contest
represent
representing
birds
advantage
emergency
wrapped
drawing
notice
broadcasting
somehow
bachelor
seventh
collected
registered
establishment
assumed
chemical
personnel
retirement
portuguese
wore
tied
device
threat
progress
advance
##ised
banks
hired
manchester
nfl
teachers
structures
forever
tennis
helping
saturday
applications
junction
incorporated
neighborhood
dressed
ceremony
influenced
hers
stairs
decades
inner
kansas
hung
hoped
gain
scheduled
downtown
engaged
austria
clock
norway
certainly
pale
victor
employees
plate
putting
surrounded
##ists
finishing
blues
tropical
minnesota
consider
philippines
accept
retrieved
concern
anderson
properties
institution
gordon
successfully
vietnam
backing
outstanding
muslim
crossing
folk
producing
usual
demand
occurs
observed
lawyer
educated
pleasure
budget
items
quietly
colorado
philip
typical
##worth
derived
survived
asks
mental
jake
jews
distinguished
sri
extremely
athletic
loud
thousands
worried
transportation
horses
weapon
arena
importance
users
objects
contributed
douglas
aware
senator
johnny
sisters
engines
flag
investment
samuel
shock
capable
clark
row
wheel
refers
familiar
biggest
wins
hate
maintained
drove
hamilton
expressed
injured
underground
churches
wars
tunnel
passes
stupid
agriculture
softly
cabinet
regarded
joining
indiana
dates
spend
behavior
woods
protein
gently
chase
morgan
mention
burning
wake
combination
occur
mirror
leads
indeed
impossible
paintings
covering
soldier
locations
attendance
sell
historian
wisconsin
invasion
argued
painter
diego
changing
egypt
experienced
inches
missouri
grounds
spoken
switzerland
reform
rolling
forget
massive
resigned
burned
tennessee
locked
values
improved
wounded
universe
sick
dating
facing
purchase
##pur
moments
merged
anniversary
coal
brick
understood
causes
dynasty
queensland
establish
stores
crisis
promote
hoping
cards
referee
extension
raise
arizona
improve
colonial
formal
charged
palm
hide
rescue
faces
feelings
candidates
juan
6th
courses
weekend
luke
cash
fallen
delivered
affected
installed
carefully
tries
hollywood
costs
lincoln
responsibility
shore
proper
normally
maryland
assistance
constant
offering
friendly
waters
persons
realize
contain
trophy
partnership
factor
musicians
bound
oregon
indicated
houston
medium
consisting
somewhat
cycle
beer
moore
frederick
gotten
worst
weak
approached
arranged
chin
loan
bond
fifteen
pattern
disappeared
translated
##zed
lip
arab
capture
interests
insurance
shifted
cave
prix
warning
sections
courts
coat
plot
smell
golf
favorite
maintain
knife
voted
degrees
finance
quebec
opinion
translation
manner
ruled
operate
productions
choose
musician
confused
tired
separated
stream
techniques
committed
attend
ranking
kings
throw
passengers
measure
horror
mining
sand
danger
salt
calm
decade
dam
require
runner
rush
associate
greece
rivers
consecutive
matthew
##ski
sighed
sq
documents
closing
tie
accused
islamic
distributed
directors
organisation
7th
breathing
mad
lit
arrival
concrete
taste
composition
shaking
faster
amateur
adjacent
stating
twin
flew
publications
obviously
ridge
storage
carl
pages
concluded
desert
driven
universities
ages
terminal
sequence
borough
constituency
cousin
economics
dreams
margaret
notably
reduce
montreal
17th
ears
saved
vocal
riding
roughly
threatened
meters
meanwhile
landed
compete
repeated
grass
czech
regularly
charges
sudden
appeal
solution
describes
classification
glad
parking
belt
physics
rachel
hungarian
participate
expedition
damaged
gift
childhood
fifty
mathematics
jumped
letting
defensive
mph
testing
hundreds
shoot
owners
matters
smoke
israeli
kentucky
dancing
mounted
grandfather
designs
profit
argentina
truly
lawrence
cole
begun
detroit
willing
branches
smiling
decide
miami
enjoyed
recordings
##dale
poverty
ethnic
arabic
accompanied
fishing
determine
residential
acid
returns
starred
strategy
forty
businesses
equivalent
commonwealth
distinct
ill
seriously
##ped
harris
replace
rio
imagine
formula
ensure
additionally
scheme
conservation
occasionally
purposes
feels
favor
1930s
contrast
hanging
hunt
movies
instruments
victims
danish
christopher
busy
demon
sugar
earliest
colony
studying
duties
belgium
slipped
carter
visible
stages
iraq
commune
forming
continuing
talked
counties
legend
bathroom
option
tail
clay
daughters
afterwards
severe
jaw
visitors
devices
aviation
entering
subjects
temporary
swimming
forth
smooth
bush
operates
rocks
movements
signs
eddie
voices
honorary
memories
dallas
measures
racial
promised
harvard
16th
parliamentary
indicate
benefit
flesh
dublin
louisiana
patient
sleeping
membership
coastal
medieval
wanting
element
scholars
rice
limit
survive
makeup
rating
definitely
collaboration
obvious
baron
birthday
linked
soil
diocese
ncaa
offensive
shouldn
waist
plain
ross
organ
resolution
manufacturing
adding
relative
kennedy
whilst
moth
gardens
crash
heading
partners
credited
carlos
moves
cable
marshall
depending
bottle
represents
rejected
responded
existed
denmark
##ating
treated
graham
routes
talent
commissioner
drugs
secure
tests
reign
restored
photography
contributions
oklahoma
designer
disc
grin
seattle
robin
paused
atlanta
unusual
praised
las
laughing
satellite
hungary
visiting
interesting
factors
deck
poems
norman
##water
stuck
speaker
rifle
premiered
comics
actors
reputation
eliminated
8th
ceiling
prisoners
leather
austin
mississippi
rapidly
admiral
parallel
charlotte
guilty
tools
gender
divisions
fruit
laboratory
nelson
marry
rapid
aunt
tribe
requirements
aspects
suicide
amongst
adams
bone
ukraine
kick
sees
edinburgh
clothing
column
rough
gods
hunting
broadway
gathered
concerns
spending
ty
12th
snapped
requires
solar
bones
cavalry
iowa
drinking
waste
franklin
charity
thompson
stewart
tip
landscape
enjoy
singh
poem
listening
eighth
fred
differences
adapted
bomb
ukrainian
surgery
corporate
masters
anywhere
waves
odd
portugal
orleans
dick
debate
kent
eating
puerto
cleared
expect
cinema
guitarist
blocks
electrical
agree
involving
depth
dying
panel
struggle
peninsula
adults
novels
emerged
vienna
debuted
shoes
tamil
songwriter
meets
prove
beating
instance
heaven
scared
sending
marks
artistic
passage
superior
significantly
retained
##izing
technique
cheeks
warren
maintenance
destroy
extreme
allied
appearing
fill
advice
alabama
qualifying
policies
cleveland
hat
battery
authors
10th
soundtrack
acted
dated
lb
glance
equipped
coalition
funny
outer
ambassador
roy
possibility
couples
campbell
loose
ethan
supplies
gonna
monster
shake
agents
frequency
springs
dogs
practices
gang
plastic
easier
suggests
gulf
blade
exposed
colors
industries
markets
nervous
electoral
charts
legislation
ownership
##idae
appointment
shield
assault
socialist
abbey
monument
license
throne
employment
replacement
charter
suffering
accounts
oak
connecticut
strongly
wright
colour
13th
context
welsh
networks
voiced
gabriel
forehead
manage
schedule
totally
remix
forests
occupation
print
nicholas
brazilian
strategic
vampires
engineers
roots
seek
correct
instrumental
und
alfred
backed
stanley
robinson
traveled
wayne
austrian
achieve
exit
rates
strip
whereas
sing
deeply
adventure
bobby
jamie
careful
components
cap
useful
personality
knee
pushing
hosts
protest
ottoman
symphony
boundary
processes
considering
considerable
tons
cooper
trading
conduct
illegal
revolutionary
definition
harder
jacob
circumstances
destruction
popularity
grip
classified
liverpool
baltimore
flows
seeking
honour
approval
mechanical
till
happening
statue
critic
increasingly
immediate
describe
commerce
stare
indonesia
meat
rounds
boats
baker
orthodox
depression
formally
worn
naked
muttered
sentence
11th
document
criticism
wished
vessel
spiritual
bent
virgin
minimum
murray
lunch
danny
printed
compilation
keyboards
blow
belonged
raising
cutting
pittsburgh
9th
shadows
hated
indigenous
jon
15th
barry
scholar
oliver
stick
susan
meetings
attracted
spell
romantic
ye
demanded
customers
logan
revival
keys
modified
commanded
jeans
upset
phil
detective
hiding
resident
##bly
experiences
diamond
defeating
coverage
lucas
external
parks
franchise
helen
bible
successor
percussion
celebrated
lift
clan
romania
##ied
mills
nobody
achievement
shrugged
fault
rhythm
initiative
breakfast
carbon
lasted
violent
wound
killer
gradually
filmed
°c
processing
remove
criticized
guests
sang
chemistry
legislature
##bridge
uniform
escaped
integrated
proposal
purple
denied
liquid
influential
morris
nights
stones
intense
experimental
twisted
pace
nazi
mitchell
ny
blind
reporter
newspapers
14th
centers
burn
basin
forgotten
surviving
filed
collections
monastery
losses
manual
couch
description
appropriate
merely
missions
sebastian
restoration
replacing
triple
elder
julia
warriors
benjamin
julian
convinced
stronger
amazing
declined
versus
merchant
happens
output
finland
bare
barbara
absence
ignored
dawn
injuries
producers
luis
##ities
kw
admit
expensive
electricity
exception
symbol
ladies
shower
sheriff
characteristics
##je
aimed
button
ratio
effectively
summit
angle
jury
bears
foster
vessels
pants
executed
evans
dozen
advertising
kicked
patrol
competitions
lifetime
principles
athletics
birmingham
sponsored
rob
nomination
acoustic
creature
longest
credits
harbor
dust
josh
territories
milk
infrastructure
completion
thailand
indians
leon
archbishop
assist
pitch
blake
arrangement
girlfriend
serbian
operational
hence
sad
scent
fur
sessions
refer
rarely
exists
1892
scientists
dirty
penalty
burst
portrait
seed
pole
limits
rival
stable
grave
constitutional
alcohol
arrest
flower
mystery
devil
architectural
relationships
greatly
habitat
##istic
larry
progressive
remote
cotton
preserved
reaches
cited
vast
scholarship
decisions
teach
editions
knocked
eve
searching
partly
participation
animated
fate
excellent
alternate
saints
youngest
climbed
suggest
discussion
staying
choir
lakes
jacket
revenue
nevertheless
peaked
instrument
wondering
annually
managing
neil
1891
signing
terry
apply
clinical
brooklyn
aim
catherine
fuck
farmers
figured
ninth
pride
hugh
ordinary
involvement
comfortable
shouted
encouraged
representation
sharing
panic
exact
cargo
competing
fat
cried
1920s
occasions
cabin
borders
utah
marcus
##isation
badly
muscles
victorian
transition
warner
bet
permission
slave
terrible
similarly
shares
seth
uefa
possession
medals
benefits
colleges
lowered
perfectly
transit
##kar
publisher
##ened
harrison
deaths
elevation
asleep
machines
sigh
ash
hardly
argument
occasion
parent
decline
contribution
concentration
opportunities
hispanic
guardian
extent
emotions
hips
mason
volumes
bloody
controversy
diameter
steady
mistake
phoenix
identify
violin
departure
richmond
spin
funeral
enemies
1864
literally
connor
random
sergeant
grab
confusion
1865
transmission
informed
leaning
sacred
suspended
thinks
gates
portland
luck
agencies
yours
hull
expert
muscle
layer
practical
sculpture
jerusalem
latest
lloyd
statistics
deeper
recommended
warrior
arkansas
mess
supports
greg
eagle
recovered
rated
concerts
rushed
stops
eggs
premiere
keith
delhi
turner
pit
affair
belief
paint
##zing
victim
withdrew
bonus
styles
fled
glasgow
technologies
funded
adaptation
portrayed
cooperation
supporters
judges
bernard
hallway
ralph
graduating
controversial
distant
continental
spider
bite
recognize
intention
mixing
egyptian
bow
tourism
suppose
claiming
dominated
participants
nurse
partially
tape
psychology
essential
touring
duo
voting
civilian
emotional
channels
apparent
hebrew
1887
tommy
carrier
intersection
beast
hudson
bench
discuss
costa
##ered
detailed
behalf
drivers
unfortunately
obtain
rocky
##dae
siege
friendship
1861
hang
governments
collins
respond
wildlife
preferred
operator
laura
pregnant
videos
dennis
suspected
boots
instantly
weird
automatic
businessman
alleged
placing
throwing
mood
1862
perry
venue
jet
remainder
passion
biological
boyfriend
1863
dirt
buffalo
ron
segment
abuse
genre
thrown
stroke
colored
stress
exercise
displayed
struggled
abroad
dramatic
wonderful
thereafter
madrid
component
widespread
##sed
tale
citizen
todd
vancouver
overseas
forcing
crying
descent
discussed
substantial
ranks
regime
provinces
drum
zane
tribes
proof
researchers
volunteer
manor
silk
milan
donated
allies
venture
principle
delivery
enterprise
bars
traditionally
witch
reminded
copper
pete
inter
colin
grinned
elsewhere
competitive
frequent
scream
tension
texts
submarine
finnish
defending
defend
pat
detail
affiliated
stuart
themes
periods
tool
belgian
ruling
crimes
answers
folded
licensed
demolished
hans
lucy
1881
lion
traded
photographs
writes
craig
trials
generated
beth
noble
debt
percentage
yorkshire
erected
viewed
grades
confidence
ceased
islam
telephone
retail
chile
m²
roberts
sixteen
commented
hampshire
innocent
dual
pounds
checked
regulations
afghanistan
sung
rico
liberty
assets
bigger
options
angels
relegated
tribute
wells
attending
leaf
romanian
monthly
patterns
gmina
madison
hurricane
rev
##ians
bristol
elite
valuable
disaster
democracy
awareness
germans
freyja
loop
absolutely
paying
populations
maine
sole
prayer
spencer
releases
doorway
bull
lover
midnight
conclusion
thirteen
mediterranean
nhl
proud
sample
##hill
drummer
guinea
murphy
climb
instant
attributed
horn
ain
railways
autumn
ferry
opponent
traveling
secured
corridor
stretched
tales
sheet
trinity
cattle
helps
indicates
manhattan
murdered
fitted
gentle
grandmother
mines
shocked
vegas
produces
caribbean
belong
continuous
desperate
drunk
historically
trio
waved
raf
dealing
nathan
murmured
interrupted
residing
scientist
pioneer
harold
aaron
delta
attempting
minority
believes
chorus
tend
lots
eyed
indoor
load
shots
updated
jail
concerning
connecting
wealth
slaves
arrive
rangers
sufficient
rebuilt
##wick
cardinal
flood
muhammad
whenever
relation
runners
moral
repair
viewers
arriving
revenge
punk
assisted
bath
fairly
breathe
lists
innings
illustrated
whisper
nearest
voters
clinton
ties
ultimate
screamed
beijing
lions
andre
fictional
gathering
comfort
radar
suitable
dismissed
hms
ban
pine
wrist
atmosphere
voivodeship
bid
timber
##ned
giants
cameron
recovery
uss
identical
categories
switched
serbia
laughter
noah
ensemble
therapy
peoples
touching
##off
locally
pearl
platforms
everywhere
ballet
tables
lanka
herbert
outdoor
toured
derek
1883
spaces
contested
swept
1878
exclusive
slight
connections
winds
prisoner
collective
bangladesh
tube
publicly
wealthy
isolated
insisted
fortune
ticket
spotted
reportedly
animation
enforcement
tanks
decides
wider
lowest
owen
nod
hitting
gregory
furthermore
magazines
fighters
solutions
pointing
requested
peru
reed
chancellor
knights
mask
worker
eldest
flames
reduction
volunteers
reporting
wire
advisory
endemic
origins
settlers
pursue
knock
consumer
1876
eu
compound
creatures
mansion
sentenced
ivan
deployed
guitars
frowned
involves
mechanism
kilometers
perspective
shops
terminus
duncan
alien
fist
bridges
##pers
heroes
derby
swallowed
patent
sara
illness
characterized
adventures
slide
hawaii
jurisdiction
organised
adelaide
walks
biology
rogers
swing
tightly
boundaries
prepare
implementation
stolen
certified
colombia
edwards
garage
recalled
rage
harm
nigeria
breast
furniture
pupils
settle
cuba
balls
alaska
21st
linear
thrust
celebration
latino
genetic
terror
##ening
lightning
fee
witness
lodge
establishing
skull
earning
hood
rebellion
sporting
warned
missile
devoted
activist
porch
worship
fourteen
package
decorated
##shire
housed
chess
sailed
doctors
oscar
joan
treat
garcia
harbour
jeremy
traditions
dominant
jacques
##gon
relocated
1879
amendment
sized
companion
simultaneously
volleyball
spun
acre
increases
stopping
loves
belongs
affect
drafted
tossed
scout
battles
1875
filming
shoved
munich
tenure
vertical
romance
argue
craft
ranging
opens
honest
tyler
yesterday
muslims
reveal
snake
immigrants
radical
screaming
speakers
firing
saving
belonging
ease
lighting
prefecture
blame
farmer
hungry
grows
rubbed
beam
sur
subsidiary
armenian
dropping
conventional
qualify
spots
sweat
festivals
immigration
physician
discover
exposure
sandy
explanation
isaac
implemented
##fish
hart
initiated
stakes
presents
heights
householder
pleased
tourist
regardless
slip
closest
surely
sultan
brings
riley
preparation
aboard
slammed
baptist
experiment
ongoing
interstate
organic
playoffs
1877
hindu
tours
tier
plenty
arrangements
talks
trapped
excited
sank
athens
1872
denver
welfare
suburb
athletes
trick
diverse
belly
exclusively
yelled
conversion
1874
internationally
computers
conductor
abilities
sensitive
dispute
measured
globe
rocket
prices
amsterdam
flights
tigers
municipalities
emotion
references
explains
airlines
manufactured
archaeological
1873
interpretation
devon
##ites
settlements
kissing
absolute
improvement
impressed
barcelona
sullivan
jefferson
towers
jesse
julie
grandson
gauge
regard
rings
interviews
trace
raymond
thumb
departments
burns
serial
bulgarian
scores
demonstrated
1866
kyle
alberta
underneath
romanized
relieved
acquisition
phrase
cliff
reveals
cuts
merger
custom
nee
gilbert
graduation
assessment
difficulty
demands
swung
democrat
commons
1940s
grove
completing
focuses
sum
substitute
bearing
stretch
reception
reflected
essentially
destination
pairs
##ched
survival
resource
##bach
promoting
doubles
messages
tear
##fully
parade
florence
harvey
incumbent
partial
pedro
frozen
procedure
olivia
controls
shelter
personally
temperatures
brisbane
tested
sits
marble
comprehensive
oxygen
leonard
##kov
inaugural
iranian
referring
quarters
attitude
mainstream
lined
mars
dakota
norfolk
unsuccessful
explosion
helicopter
congressional
##sing
inspector
bitch
seal
departed
divine
coaching
examination
punishment
manufacturer
sink
columns
unincorporated
signals
nevada
squeezed
dylan
dining
martial
manuel
eighteen
elevator
brushed
plates
ministers
congregation
slept
specialized
taxes
restricted
negotiations
likes
statistical
arnold
inspiration
execution
bold
intermediate
significance
margin
ruler
wheels
gothic
intellectual
dependent
listened
eligible
buses
widow
syria
earn
cincinnati
collapsed
recipient
secrets
accessible
philippine
maritime
goddess
clerk
surrender
breaks
playoff
ideal
beetle
aspect
soap
regulation
strings
expand
anglo
shorter
crosses
retreat
tough
coins
wallace
directions
pressing
shipping
locomotives
comparison
topics
nephew
distinction
honors
travelled
sierra
ibn
fortress
recognised
carved
1869
clients
intent
coaches
describing
bread
##ington
beaten
northwestern
merit
collapse
challenges
historians
objective
submitted
virus
attacking
drake
assume
diseases
stem
leeds
farming
glasses
visits
nowhere
fellowship
relevant
carries
restaurants
experiments
constantly
bases
targets
shah
tenth
opponents
verse
territorial
writings
corruption
instruction
inherited
reverse
emphasis
employee
arch
keeps
rabbi
watson
payment
uh
nancy
##tre
venice
fastest
sexy
banned
adrian
properly
ruth
touchdown
dollar
boards
metre
circles
edges
favour
travels
liberation
scattered
firmly
holland
permitted
diesel
kenya
den
originated
demons
resumed
dragged
rider
servant
blinked
extend
torn
##sey
input
meal
everybody
cylinder
kinds
camps
bullet
logic
croatian
evolved
healthy
fool
wise
preserve
pradesh
respective
artificial
gross
corresponding
convicted
cage
caroline
dialogue
##dor
narrative
stranger
mario
christianity
failing
trent
commanding
buddhist
1848
maurice
focusing
yale
bike
altitude
mouse
revised
##sley
veteran
pulls
theology
crashed
campaigns
legion
##ability
drag
excellence
customer
cancelled
intensity
excuse
liga
participating
contributing
printing
##burn
variable
curious
legacy
renaissance
symptoms
binding
vocalist
dancer
grammar
gospel
democrats
enters
diplomatic
hitler
clouds
mathematical
quit
defended
oriented
##heim
fundamental
hardware
impressive
equally
convince
confederate
guilt
chuck
sliding
magnetic
narrowed
petersburg
bulgaria
otto
phd
skill
hopes
pitcher
reservoir
hearts
automatically
expecting
mysterious
bennett
extensively
imagined
seeds
monitor
fix
##ative
journalism
struggling
signature
ranch
encounter
photographer
observation
protests
influences
calendar
cruz
croatia
locomotive
hughes
naturally
shakespeare
basement
hook
uncredited
faded
theories
approaches
dare
phillips
filling
fury
obama
efficient
arc
deliver
breeding
inducted
leagues
efficiency
axis
montana
eagles
##ked
supplied
instructions
karen
picking
indicating
trap
anchor
practically
christians
tomb
vary
occasional
electronics
lords
readers
newcastle
faint
innovation
collect
situations
engagement
claude
mixture
##feld
peer
tissue
lean
°f
floors
architects
reducing
rope
1859
ottawa
##har
samples
banking
declaration
proteins
resignation
francois
saudi
advocate
exhibited
armor
twins
divorce
##ras
abraham
reviewed
temporarily
matrix
physically
pulse
curled
difficulties
bengal
usage
##ban
riders
certificate
holes
warsaw
distinctive
mutual
1857
customs
circular
eugene
removal
loaded
mere
vulnerable
depicted
generations
dame
heir
enormous
lightly
climbing
pitched
lessons
pilots
nepal
preparing
brad
louise
renowned
liam
##ably
shaw
brilliant
bills
##nik
fucking
mainland
pleasant
seized
veterans
jerked
fail
brush
radiation
stored
warmth
southeastern
nate
sin
raced
berkeley
joke
athlete
designation
trunk
roland
qualification
heels
artwork
receives
judicial
reserves
##bed
woke
installation
abu
floating
fake
lesser
excitement
interface
concentrated
addressed
characteristic
amanda
saxophone
monk
releasing
egg
dies
interaction
defender
outbreak
glory
loving
sequel
consciousness
awake
ski
enrolled
handling
rookie
brow
somebody
biography
warfare
amounts
contracts
presentation
fabric
dissolved
challenged
meter
psychological
elevated
rally
accurate
##tha
hospitals
undergraduate
specialist
venezuela
exhibit
shed
nursing
protestant
fluid
structural
footage
jared
consistent
prey
##ska
succession
reflect
exile
lebanon
wiped
suspect
shanghai
resting
integration
preservation
marvel
variant
pirates
sheep
rounded
capita
sailing
colonies
manuscript
deemed
variations
clarke
functional
emerging
boxing
relaxed
curse
azerbaijan
heavyweight
nickname
editorial
rang
grid
tightened
earthquake
flashed
miguel
rushing
##ches
improvements
boxes
brooks
consumption
molecular
felix
societies
repeatedly
variation
aids
civic
graphics
professionals
realm
autonomous
receiver
delayed
workshop
militia
chairs
canyon
harsh
extending
lovely
happiness
##jan
stake
eyebrows
embassy
wellington
hannah
corners
bishops
swear
cloth
contents
namely
commenced
1854
stanford
nashville
courage
graphic
commitment
garrison
hamlet
clearing
rebels
attraction
literacy
cooking
ruins
temples
jenny
humanity
celebrate
hasn
freight
sixty
rebel
bastard
newton
deer
##ges
##ching
smiles
delaware
singers
approaching
assists
flame
boulevard
barrel
planted
pursuit
consequences
shallow
invitation
rode
depot
ernest
kane
rod
concepts
preston
topic
chambers
striking
blast
arrives
descendants
montgomery
ranges
worlds
chaos
praise
fewer
1855
sanctuary
mud
programmes
maintaining
harper
bore
handsome
closure
tournaments
nebraska
linda
facade
puts
satisfied
argentine
dale
cork
dome
panama
##yl
1858
tasks
experts
##ates
feeding
equation
engage
bryan
um
quartet
disbanded
sheffield
blocked
gasped
delay
kisses
connects
##non
sts
poured
creator
publishers
guided
ellis
extinct
hug
gaining
##ord
complicated
poll
clenched
investigate
thereby
quantum
spine
cdp
humor
kills
administered
semifinals
encountered
ignore
commentary
##maker
bother
roosevelt
plains
halfway
flowing
cultures
crack
imprisoned
neighboring
airline
gather
wolves
marathon
transformed
cruise
organisations
punch
exhibitions
numbered
alarm
ratings
daddy
silently
##stein
queens
colours
impression
guidance
tactical
##rat
marshal
della
arrow
rested
feared
tender
owns
bitter
advisor
escort
##ides
spare
farms
grants
dragons
encourage
colleagues
cameras
sucked
pile
spirits
prague
statements
suspension
landmark
fence
torture
recreation
bags
permanently
survivors
pond
spy
predecessor
bombing
coup
protecting
transformation
glow
##lands
dug
priests
andrea
feat
barn
jumping
##ologist
casualties
stern
auckland
pipe
serie
revealing
trevor
mercy
spectrum
consist
governing
collaborated
possessed
epic
comprises
blew
shane
lopez
honored
magical
sacrifice
judgment
perceived
hammer
baronet
tune
das
missionary
sheets
neutral
oral
threatening
attractive
shade
aims
seminary
estates
1856
michel
wounds
refugees
manufacturers
mercury
syndrome
porter
##iya
##din
hamburg
identification
upstairs
purse
widened
pause
cared
breathed
affiliate
santiago
prevented
celtic
fisher
recruited
byzantine
reconstruction
farther
diet
sake
spite
sensation
blank
separation
##hon
vladimir
armies
anime
accommodate
orbit
cult
sofia
##ify
founders
sustained
disorder
honours
northeastern
mia
crops
violet
threats
blanket
fires
canton
followers
southwestern
prototype
voyage
assignment
altered
moderate
protocol
pistol
questioned
brass
lifting
1852
math
authored
doug
dimensional
dynamic
1851
pronounced
grateful
quest
uncomfortable
boom
presidency
stevens
relating
politicians
barrier
quinn
diana
mosque
tribal
palmer
portions
sometime
chester
treasure
bend
millions
reforms
registration
consequently
monitoring
ate
preliminary
brandon
invented
eaten
exterior
intervention
ports
documented
displays
lecture
sally
favourite
vermont
invisible
isle
breed
journalists
relay
speaks
backward
explore
midfielder
actively
stefan
procedures
cannon
blond
kenneth
centered
servants
chains
libraries
malcolm
essex
henri
slavery
##hal
facts
fairy
coached
cassie
cats
washed
cop
announcement
2000s
vinyl
activated
marco
frontier
growled
curriculum
##das
loyal
accomplished
leslie
ritual
kenny
vii
napoleon
hollow
hybrid
jungle
stationed
friedrich
counted
##ulated
platinum
theatrical
seated
col
rubber
glen
diversity
healing
extends
provisions
administrator
columbus
tributary
assured
##uous
prestigious
examined
lectures
grammy
ronald
associations
bailey
allan
essays
flute
believing
consultant
proceedings
travelling
1853
kerala
yugoslavia
buddy
methodist
burial
centres
batman
discontinued
dock
stockholm
lungs
severely
citing
manga
steal
mumbai
iraqi
robot
celebrity
bride
broadcasts
abolished
pot
joel
overhead
franz
packed
reconnaissance
johann
acknowledged
introduce
handled
doctorate
developments
drinks
alley
palestine
##aki
proceeded
recover
bradley
grain
patch
afford
infection
nationalist
legendary
interchange
virtually
gen
gravity
exploration
amber
vital
wishes
powell
doctrine
elbow
screenplay
##bird
contribute
indonesian
creates
enzyme
kylie
discipline
drops
manila
hunger
layers
suffer
fever
bits
monica
keyboard
manages
##hood
searched
appeals
##bad
testament
grande
reid
##war
beliefs
congo
requiring
casey
1849
regret
streak
rape
depends
syrian
sprint
pound
tourists
upcoming
pub
tense
##els
practiced
nationwide
guild
motorcycle
liz
##zar
chiefs
desired
elena
precious
absorbed
relatives
booth
pianist
##mal
citizenship
exhausted
wilhelm
##ceae
##hed
noting
quarterback
urge
hectares
##gue
holly
blonde
davies
parked
sustainable
stepping
twentieth
airfield
nest
chip
##nell
shaft
paulo
requirement
paradise
tobacco
trans
renewed
vietnamese
suggesting
catching
holmes
enjoying
trips
colt
holder
butterfly
nerve
reformed
cherry
bowling
trailer
carriage
goodbye
appreciate
toy
joshua
interactive
enabled
involve
##kan
collar
determination
bunch
recall
shorts
superintendent
episcopal
frustration
giovanni
nineteenth
laser
privately
array
circulation
##ovic
armstrong
deals
painful
permit
discrimination
aires
retiring
cottage
horizon
ellen
jamaica
ripped
fernando
chapters
patron
lecturer
behaviour
genes
georgian
export
solomon
rivals
seventeen
rodriguez
princeton
independently
sox
1847
arguing
entity
casting
hank
criteria
oakland
geographic
milwaukee
reflection
expanding
conquest
dubbed
halt
brave
brunswick
arched
curtis
divorced
predominantly
somerset
streams
ugly
zoo
horrible
curved
buenos
fierce
dictionary
vector
theological
unions
handful
stability
punjab
segments
altar
ignoring
gesture
monsters
pastor
thighs
unexpected
operators
abruptly
coin
compiled
associates
improving
migration
compact
collegiate
quarterfinals
roster
restore
assembled
hurry
oval
##cies
1846
flags
martha
victories
sharply
##rated
argues
deadly
drawings
symbols
performer
griffin
restrictions
editing
andrews
journals
arabia
compositions
dee
pierce
removing
hindi
casino
runway
civilians
minds
##zation
refuge
rent
retain
potentially
conferences
suburban
conducting
descended
massacre
ammunition
terrain
fork
souls
counts
chelsea
durham
drives
cab
perth
realizing
palestinian
finn
simpson
##dal
betty
moreover
particles
cardinals
tent
evaluation
extraordinary
inscription
wednesday
chloe
maintains
panels
ashley
trucks
##nation
cluster
sunlight
strikes
zhang
dialect
tucked
collecting
##mas
##sville
quoted
evan
franco
aria
buying
cleaning
closet
provision
apollo
clinic
rat
necessarily
##ising
venues
flipped
cent
spreading
trustees
checking
authorized
disappointed
##ado
notion
duration
trumpet
hesitated
topped
brussels
rolls
theoretical
hint
define
aggressive
repeat
wash
peaceful
optical
width
allegedly
mcdonald
strict
##illa
investors
jam
witnesses
sounding
miranda
michelle
hugo
harmony
valid
lynn
glared
nina
headquartered
diving
boarding
gibson
albanian
marsh
routine
dealt
enhanced
intelligent
substance
targeted
enlisted
discovers
spinning
observations
pissed
smoking
capitol
varied
costume
seemingly
indies
compensation
surgeon
thursday
arsenal
westminster
suburbs
rid
anglican
##ridge
knots
foods
alumni
lighter
fraser
whoever
portal
scandal
gavin
advised
instructor
flooding
terrorist
teenage
interim
senses
duck
teen
thesis
abby
eager
overcome
newport
glenn
rises
shame
prompted
priority
forgot
bomber
nicolas
protective
cartoon
katherine
breeze
lonely
trusted
henderson
richardson
relax
palms
remarkable
legends
cricketer
essay
ordained
edmund
rifles
trigger
##uri
##away
sail
alert
1830
audiences
penn
sussex
siblings
pursued
indianapolis
resist
rosa
consequence
succeed
avoided
1845
##ulation
inland
##tie
##nna
counsel
profession
chronicle
hurried
##una
eyebrow
eventual
bleeding
innovative
cure
committees
accounting
scope
hardy
heather
tenor
gut
herald
codes
tore
scales
wagon
luxury
tin
prefer
fountain
triangle
bonds
darling
convoy
dried
traced
beings
troy
accidentally
slam
findings
smelled
joey
lawyers
outcome
steep
bosnia
configuration
shifting
toll
brook
performers
lobby
philosophical
construct
shrine
aggregate
cox
phenomenon
savage
insane
solely
reynolds
nationally
holdings
consideration
enable
edgar
fights
relegation
chances
atomic
hub
conjunction
awkward
reactions
currency
finale
kumar
underwent
steering
elaborate
gifts
comprising
melissa
veins
reasonable
sunshine
solve
trails
inhabited
elimination
ethics
huh
ana
molly
consent
apartments
layout
marines
hunters
bulk
##oma
hometown
##wall
##mont
cracked
reads
neighbouring
withdrawn
admission
wingspan
damned
anthology
lancashire
brands
batting
forgive
cuban
awful
##lyn
dimensions
imagination
dante
tracking
desperately
goalkeeper
##yne
groaned
workshops
confident
burton
gerald
milton
circus
uncertain
slope
copenhagen
sophia
fog
philosopher
portraits
accent
cycling
varying
gripped
larvae
garrett
specified
scotia
mature
luther
kurt
rap
##kes
aerial
ferdinand
heated
transported
##shan
safely
nonetheless
##orn
##gal
motors
demanding
##sburg
startled
##brook
ally
generate
caps
ghana
stained
mentions
beds
afterward
##bling
utility
##iro
richards
1837
conspiracy
conscious
shining
footsteps
observer
cyprus
urged
loyalty
developer
probability
olive
upgraded
gym
miracle
insects
graves
1844
ourselves
hydrogen
katie
tickets
poets
planes
prevention
witnessed
dense
jin
randy
tang
warehouse
monroe
archived
elderly
investigations
alec
granite
mineral
conflicts
controlling
aboriginal
mechanics
stan
stark
rhode
skirt
est
bombs
respected
##horn
imposed
limestone
deny
nominee
memphis
grabbing
disabled
amusement
frankfurt
corn
referendum
varies
slowed
disk
firms
unconscious
incredible
clue
sue
##zhou
twist
##cio
joins
idaho
chad
developers
computing
destroyer
mortal
tucker
kingston
choices
carson
whitney
geneva
pretend
dimension
staged
plateau
maya
##une
freestyle
rovers
##ids
tristan
classroom
prospect
##hus
honestly
diploma
lied
thermal
auxiliary
feast
unlikely
iata
morocco
pounding
treasury
lithuania
considerably
1841
dish
1812
geological
matching
stumbled
destroying
marched
brien
advances
nicole
settling
measuring
directing
##mie
tuesday
bassist
capabilities
stunned
fraud
torpedo
##phone
anton
wisdom
surveillance
ruined
##ulate
lawsuit
healthcare
theorem
halls
trend
aka
horizontal
dozens
acquire
lasting
swim
hawk
gorgeous
fees
vicinity
decrease
adoption
tactics
##ography
pakistani
##ole
draws
##hall
willie
burke
heath
algorithm
integral
powder
elliott
brigadier
jackie
tate
varieties
darker
##cho
lately
cigarette
specimens
adds
##ensis
##inger
exploded
finalist
murders
wilderness
arguments
nicknamed
acceptance
onwards
manufacture
robertson
jets
tampa
enterprises
loudly
composers
nominations
1838
malta
inquiry
automobile
hosting
viii
rays
tilted
grief
museums
strategies
furious
euro
equality
cohen
poison
surrey
wireless
governed
ridiculous
moses
##esh
vanished
barnes
attract
morrison
istanbul
##iness
absent
rotation
petition
janet
##logical
satisfaction
custody
deliberately
observatory
comedian
surfaces
pinyin
novelist
strictly
canterbury
oslo
monks
embrace
jealous
photograph
continent
dorothy
marina
excess
holden
allegations
explaining
stack
avoiding
lance
storyline
majesty
poorly
spike
bradford
raven
travis
classics
proven
voltage
pillow
fists
butt
1842
interpreted
1839
gage
telegraph
lens
promising
expelled
casual
collector
zones
silly
nintendo
##kh
downstairs
chef
suspicious
afl
flies
vacant
uganda
pregnancy
condemned
lutheran
estimates
cheap
decree
saxon
proximity
stripped
idiot
deposits
contrary
presenter
magnus
glacier
offense
edwin
##ori
upright
##long
bolt
##ois
toss
geographical
##izes
environments
delicate
marking
abstract
xavier
nails
windsor
plantation
occurring
equity
saskatchewan
fears
drifted
sequences
vegetation
revolt
##stic
1843
sooner
fusion
opposing
nato
skating
1836
secretly
ruin
lease
flora
anxiety
##ological
##mia
bout
taxi
emmy
frost
rainbow
compounds
foundations
rainfall
assassination
nightmare
dominican
achievements
deserve
orlando
intact
armenia
##nte
calgary
valentine
marion
proclaimed
theodore
bells
courtyard
thigh
gonzalez
console
troop
minimal
everyday
supporter
terrorism
buck
openly
presbyterian
activists
carpet
##iers
rubbing
uprising
cute
conceived
legally
##cht
millennium
cello
velocity
rescued
cardiff
1835
rex
concentrate
senators
beard
rendered
glowing
battalions
scouts
competitors
sculptor
catalogue
arctic
ion
raja
bicycle
glancing
lawn
##woman
gentleman
lighthouse
publish
predicted
calculated
variants
##gne
strain
winston
deceased
touchdowns
brady
caleb
sinking
echoed
crush
hon
blessed
protagonist
hayes
endangered
magnitude
editors
##tine
estimate
responsibilities
##mel
backup
laying
consumed
sealed
zurich
lovers
frustrated
##eau
ahmed
kicking
treasurer
1832
biblical
refuse
terrified
pump
agrees
genuine
imprisonment
refuses
plymouth
lou
##nen
tara
trembling
antarctic
ton
learns
##tas
crap
crucial
faction
atop
##borough
wrap
lancaster
odds
hopkins
erik
lyon
##eon
bros
snap
locality
empress
crowned
cal
acclaimed
chuckled
clara
sends
mild
towel
wishing
assuming
interviewed
##bal
interactions
eden
cups
helena
indie
beck
##fire
batteries
filipino
wizard
parted
traces
##born
rows
idol
albany
delegates
##ees
##sar
discussions
notre
instructed
belgrade
highways
suggestion
lauren
possess
orientation
alexandria
abdul
beats
salary
reunion
ludwig
alright
wagner
intimate
pockets
slovenia
hugged
brighton
merchants
cruel
stole
trek
slopes
repairs
enrollment
politically
underlying
promotional
counting
boeing
isabella
naming
keen
bacteria
listing
separately
belfast
ussr
lithuanian
anybody
ribs
sphere
martinez
cock
embarrassed
proposals
fragments
nationals
##wski
premises
fin
alpine
matched
freely
bounded
jace
sleeve
pier
populated
evident
##like
frances
flooded
##dle
frightened
pour
trainer
framed
visitor
challenging
pig
wickets
##fold
infected
##pes
arose
reward
ecuador
oblast
vale
shuttle
##usa
bach
rankings
forbidden
cornwall
accordance
salem
consumers
bruno
fantastic
toes
machinery
resolved
julius
remembering
propaganda
iceland
bombardment
tide
contacts
wives
##rah
concerto
macdonald
albania
implement
daisy
tapped
sudan
helmet
mistress
crop
sunk
finest
##craft
hostile
boxer
fr
paths
adjusted
habit
ballot
supervision
soprano
bullets
wicked
sunset
regiments
disappear
lamp
performs
##gia
rabbit
digging
incidents
entries
##cion
dishes
introducing
##ati
##fied
freshman
slot
jill
tackles
baroque
backs
##iest
lone
sponsor
destiny
altogether
convert
##aro
consensus
shapes
demonstration
basically
feminist
auction
artifacts
##bing
strongest
halifax
allmusic
mighty
smallest
precise
alexandra
viola
##los
##ille
manuscripts
##illo
dancers
ari
managers
monuments
blades
barracks
springfield
maiden
consolidated
electron
berry
airing
wheat
nobel
inclusion
blair
payments
geography
bee
eleanor
react
##hurst
afc
manitoba
lineup
fitness
recreational
investments
airborne
disappointment
##dis
edmonton
viewing
renovation
infant
bankruptcy
roses
aftermath
pavilion
carpenter
withdrawal
ladder
discussing
popped
reliable
agreements
rochester
##abad
curves
bombers
rao
reverend
decreased
choosing
stiff
consulting
naples
crawford
tracy
ribbon
cops
crushed
deciding
unified
teenager
accepting
flagship
poles
sanchez
inspection
revived
skilled
induced
exchanged
flee
locals
tragedy
swallow
hanna
demonstrate
##ela
salvador
flown
contestants
civilization
##ines
wanna
rhodes
fletcher
hector
knocking
considers
nash
mechanisms
sensed
mentally
walt
unclear
##eus
renovated
madame
crews
governmental
undertaken
monkey
##ben
##ato
fatal
armored
copa
caves
governance
grasp
perception
certification
froze
damp
tugged
wyoming
##rg
##ero
newman
nerves
curiosity
graph
##ami
withdraw
tunnels
dull
meredith
moss
exhibits
neighbors
communicate
accuracy
explored
raiders
republicans
secular
kat
superman
penny
criticised
freed
conviction
ham
likewise
delegation
gotta
doll
promises
technological
myth
nationality
resolve
convent
sharon
dig
sip
coordinator
entrepreneur
fold
##dine
capability
councillor
synonym
blown
swan
cursed
1815
jonas
haired
sofa
canvas
keeper
rivalry
##hart
rapper
speedway
swords
postal
maxwell
estonia
potter
recurring
errors
##oni
cognitive
1834
claws
nadu
roberto
bce
wrestler
ellie
infinite
ink
##tia
presumably
finite
staircase
noel
patricia
nacional
chill
eternal
tu
preventing
prussia
fossil
limbs
##logist
ernst
frog
perez
rene
prussian
##ios
molecules
regulatory
answering
opinions
sworn
lengths
supposedly
hypothesis
upward
habitats
seating
ancestors
drank
yield
synthesis
researcher
modest
##var
mothers
peered
voluntary
homeland
acclaim
##igan
static
valve
luxembourg
alto
carroll
receptor
norton
ambulance
##tian
johnston
catholics
depicting
jointly
elephant
gloria
mentor
badge
ahmad
distinguish
remarked
councils
precisely
allison
advancing
detection
crowded
cooperative
ankle
mercedes
dagger
surrendered
pollution
commit
subway
jeffrey
lesson
sculptures
provider
##fication
membrane
timothy
rectangular
fiscal
heating
teammate
basket
particle
anonymous
deployment
missiles
courthouse
proportion
shoe
sec
complaints
forbes
blacks
abandon
remind
sizes
overwhelming
autobiography
natalie
##awa
risks
contestant
countryside
babies
scorer
invaded
enclosed
proceed
hurling
disorders
##cu
reflecting
continuously
cruiser
graduates
freeway
investigated
ore
deserved
maid
blocking
phillip
jorge
shakes
dove
mann
variables
lacked
burden
accompanying
que
consistently
organizing
provisional
complained
endless
tubes
juice
georges
krishna
mick
thriller
laps
arcade
sage
snail
shannon
laurence
seoul
vacation
presenting
hire
churchill
surprisingly
prohibited
savannah
technically
##oli
##lessly
testimony
suited
speeds
toys
romans
flowering
measurement
talented
kay
settings
charleston
expectations
shattered
achieving
triumph
ceremonies
portsmouth
lanes
mandatory
loser
stretching
cologne
realizes
seventy
cornell
careers
webb
##ulating
americas
budapest
ava
suspicion
yo
conrad
sterling
jessie
rector
##az
1831
transform
organize
loans
christine
volcanic
warrant
slender
summers
subfamily
newer
danced
dynamics
rhine
proceeds
heinrich
gastropod
commands
sings
facilitate
easter
positioned
responses
expense
fruits
yanked
imported
25th
velvet
vic
primitive
tribune
baldwin
neighbourhood
donna
rip
hay
##uro
1814
espn
welcomed
##aria
qualifier
glare
highland
timing
##cted
shells
eased
geometry
louder
exciting
slovakia
##iz
savings
prairie
marching
rafael
tonnes
##lled
curtain
preceding
shy
heal
greene
worthy
##pot
detachment
bury
sherman
##eck
reinforced
seeks
bottles
contracted
duchess
outfit
walsh
mickey
geoffrey
archer
squeeze
dawson
eliminate
invention
##enberg
neal
##eth
stance
dealer
coral
maple
retire
simplified
1833
hid
watts
backwards
jules
##oke
genesis
frames
rebounds
burma
woodland
moist
santos
whispers
drained
subspecies
streaming
ulster
burnt
correspondence
maternal
gerard
denis
stealing
genius
duchy
##oria
inaugurated
momentum
suits
placement
sovereign
clause
thames
##hara
confederation
reservation
sketch
yankees
lets
rotten
charm
hal
verses
commercially
dot
salon
citation
adopt
winnipeg
mist
allocated
cairo
jenkins
interference
objectives
##wind
1820
portfolio
armoured
sectors
initiatives
integrity
exercises
robe
tap
gazed
##tones
distracted
rulers
favorable
jerome
tended
cart
factories
##eri
diplomat
valued
gravel
charitable
calvin
exploring
shepherd
terrace
pupil
##ural
reflects
##rch
governors
shelf
depths
##nberg
trailed
crest
tackle
##nian
hatred
##kai
clare
makers
ethiopia
longtime
detected
embedded
lacking
slapped
rely
thomson
anticipation
morton
successive
agnes
screenwriter
straightened
philippe
playwright
haunted
licence
iris
intentions
sutton
logical
correctly
##weight
branded
licked
tipped
silva
ricky
narrator
requests
##ents
greeted
supernatural
cow
##wald
lung
refusing
employer
strait
gaelic
liner
##piece
zoe
sabha
##mba
driveway
harvest
prints
bates
reluctantly
threshold
algebra
ira
wherever
coupled
assumption
picks
designers
raids
gentlemen
roller
blowing
leipzig
locks
screw
dressing
strand
##lings
scar
dwarf
depicts
##nu
nods
differ
boris
##eur
yuan
flip
##gie
mob
invested
questioning
applying
shout
##sel
gameplay
blamed
illustrations
bothered
weakness
rehabilitation
##zes
envelope
rumors
miners
leicester
subtle
kerry
ferguson
premiership
bengali
prof
catches
remnants
dana
##rily
shouting
presidents
baltic
ought
ghosts
dances
sailors
shirley
fancy
dominic
##bie
madonna
##rick
bark
buttons
gymnasium
ashes
liver
toby
oath
providence
doyle
evangelical
nixon
cement
carnegie
embarked
hatch
surroundings
guarantee
needing
pirate
essence
filter
crane
hammond
projected
immune
percy
twelfth
regent
doctoral
damon
mikhail
##ichi
critically
elect
realised
abortion
acute
screening
mythology
steadily
frown
nottingham
kirk
wa
minneapolis
##rra
module
algeria
nautical
encounters
surprising
statues
availability
shirts
pie
alma
brows
munster
mack
soup
crater
tornado
sanskrit
cedar
explosive
bordered
dixon
planets
stamp
exam
happily
##bble
carriers
kidnapped
accommodation
emigrated
##met
knockout
correspondent
violation
profits
peaks
lang
specimen
agenda
ancestry
pottery
spelling
equations
obtaining
ki
linking
1825
debris
asylum
buddhism
##ants
gazette
dental
eligibility
fathers
averaged
zimbabwe
francesco
coloured
hissed
translator
lynch
mandate
humanities
mackenzie
uniforms
##iana
asset
fitting
samantha
genera
rim
beloved
shark
riot
entities
expressions
indo
carmen
slipping
owing
abbot
neighbor
sidney
rats
recommendations
encouraging
squadrons
anticipated
commanders
conquered
donations
diagnosed
divide
##iva
guessed
decoration
vernon
auditorium
revelation
conversations
##kers
##power
herzegovina
dash
alike
protested
lateral
herman
accredited
##gent
freeman
mel
fiji
crow
crimson
##rine
livestock
##pped
humanitarian
bored
oz
whip
##lene
##ali
legitimate
alter
grinning
spelled
anxious
oriental
wesley
##nin
##hole
carnival
controller
detect
##ssa
bowed
educator
kosovo
macedonia
##sin
occupy
mastering
stephanie
janeiro
para
unaware
nurses
noon
hopefully
ranger
combine
sociology
polar
rica
##eer
neill
##sman
holocaust
doubled
lust
1828
decent
cooling
unveiled
1829
nsw
homer
chapman
meyer
dive
mae
reagan
expertise
##gled
darwin
brooke
sided
prosecution
investigating
comprised
petroleum
genres
reluctant
differently
trilogy
johns
vegetables
corpse
highlighted
lounge
pension
unsuccessfully
elegant
aided
ivory
beatles
amelia
cain
dubai
immigrant
babe
underwater
combining
mumbled
atlas
horns
accessed
ballad
physicians
homeless
gestured
rpm
freak
louisville
corporations
patriots
prizes
rational
warn
modes
decorative
overnight
din
troubled
phantom
monarch
sheer
##dorf
generals
guidelines
organs
addresses
enhance
curling
parishes
cord
##kie
caesar
deutsche
bavaria
coleman
cyclone
##eria
bacon
petty
##yama
##old
hampton
diagnosis
1824
throws
complexity
rita
disputed
pablo
marketed
trafficking
##ulus
examine
plague
formats
vault
faithful
##bourne
webster
highlights
##ient
phones
vacuum
sandwich
modeling
##gated
bolivia
clergy
qualities
isabel
##nas
##ars
wears
screams
reunited
annoyed
bra
##ancy
##rate
differential
transmitter
tattoo
container
poker
##och
excessive
resides
cowboys
##tum
augustus
trash
providers
statute
retreated
balcony
reversed
void
storey
preceded
masses
leap
laughs
neighborhoods
wards
schemes
falcon
santo
battlefield
ronnie
lesbian
venus
##dian
beg
sandstone
daylight
punched
gwen
analog
stroked
wwe
acceptable
measurements
toxic
##kel
adequate
surgical
economist
parameters
varsity
##sberg
quantity
##chy
##rton
countess
generating
precision
diamonds
expressway
##ı
1821
uruguay
talents
galleries
expenses
scanned
colleague
outlets
ryder
lucien
##ila
paramount
syracuse
dim
fangs
gown
sweep
##sie
missionaries
websites
sentences
adviser
val
trademark
spells
##plane
patience
starter
slim
##borg
toe
incredibly
shoots
elliot
nobility
##wyn
cowboy
endorsed
gardner
tendency
persuaded
organisms
emissions
kazakhstan
amused
boring
chips
themed
##hand
constantinople
chasing
systematic
guatemala
borrowed
erin
carey
##hard
highlands
struggles
1810
##ifying
##ced
exceptions
develops
enlarged
kindergarten
castro
##rina
leigh
zombie
juvenile
##most
consul
sailor
hyde
clarence
intensive
pinned
nasty
useless
jung
clayton
stuffed
exceptional
ix
apostolic
transactions
exempt
swinging
cove
religions
shields
dairy
bypass
pursuing
joyce
bombay
chassis
southampton
chat
interact
redesignated
##pen
nascar
pray
salmon
rigid
regained
malaysian
grim
publicity
constituted
capturing
toilet
delegate
purely
tray
drift
loosely
striker
weakened
trinidad
mitch
itv
defines
transmitted
scarlet
nodding
fitzgerald
narrowly
tooth
standings
virtue
##wara
##cting
chateau
gloves
lid
hurting
conservatory
##pel
sinclair
reopened
sympathy
nigerian
strode
advocated
optional
chronic
discharge
suck
compatible
laurel
stella
fails
wage
dodge
informal
sorts
levi
buddha
villagers
chronicles
heavier
summoned
gateway
eleventh
jewelry
translations
accordingly
seas
##ency
fiber
pyramid
cubic
dragging
##ista
caring
##ops
contacted
lunar
lisbon
patted
1826
sacramento
theft
madagascar
subtropical
disputes
holidays
piper
willow
mare
cane
newfoundland
benny
companions
dong
raj
observe
roar
charming
plaque
tibetan
fossils
enacted
manning
bubble
tanzania
##eda
##hir
funk
swamp
deputies
cloak
ufc
scenario
par
scratch
metals
anthem
guru
engaging
specially
##boat
dialects
nineteen
cecil
duet
disability
unofficial
##lies
defunct
moonlight
drainage
surname
puzzle
switching
conservatives
mammals
knox
broadcaster
sidewalk
cope
##ried
benson
princes
peterson
##sal
bedford
sharks
eli
wreck
alberto
gasp
archaeology
lgbt
teaches
securities
madness
compromise
waving
coordination
davidson
visions
leased
possibilities
eighty
fernandez
enthusiasm
assassin
sponsorship
reviewer
kingdoms
estonian
laboratories
##fy
##nal
applies
verb
celebrations
##zzo
rowing
lightweight
sadness
submit
balanced
dude
explicitly
metric
magnificent
mound
brett
mohammad
mistakes
irregular
sanders
betrayed
shipped
surge
##enburg
reporters
termed
georg
pity
verbal
bulls
abbreviated
enabling
appealed
sicily
sting
heel
sweetheart
bart
spacecraft
brutal
monarchy
aberdeen
cameo
diane
survivor
clyde
##aries
complaint
##makers
clarinet
delicious
chilean
karnataka
coordinates
1818
panties
##rst
pretending
dramatically
kiev
tends
distances
catalog
launching
instances
telecommunications
portable
lindsay
vatican
##eim
angles
aliens
marker
stint
screens
bolton
##rne
judy
wool
benedict
plasma
europa
imaging
filmmaker
swiftly
contributor
opted
stamps
apologize
financing
butter
gideon
sophisticated
alignment
avery
chemicals
yearly
speculation
prominence
professionally
immortal
institutional
inception
wrists
identifying
tribunal
derives
gains
papal
preference
linguistic
vince
operative
brewery
##ont
unemployment
boyd
##ured
##outs
albeit
prophet
1813
##rad
quarterly
asteroid
cleaned
radius
temper
##llen
telugu
jerk
viscount
##ote
glimpse
##aya
yacht
hawaiian
baden
laptop
readily
##gu
monetary
offshore
scots
watches
##yang
##arian
upgrade
needle
lea
encyclopedia
flank
fingertips
delight
teachings
confirm
roth
beaches
midway
winters
##iah
teasing
daytime
beverly
gambling
##backs
regulated
clement
hermann
tricks
knot
##shing
##uring
##vre
detached
ecological
owed
specialty
byron
inventor
bats
stays
screened
unesco
midland
trim
affection
##ander
jess
thoroughly
feedback
chennai
strained
heartbeat
wrapping
overtime
pleaded
##sworth
leisure
oclc
##tate
##ele
feathers
angelo
thirds
nuts
surveys
clever
gill
commentator
##dos
darren
rides
gibraltar
dissolution
dedication
shin
meals
saddle
elvis
reds
chaired
taller
appreciation
functioning
niece
favored
advocacy
robbie
criminals
suffolk
yugoslav
passport
constable
congressman
hastings
##rov
consecrated
sparks
ecclesiastical
confined
##ovich
muller
floyd
nora
1822
paved
1827
cumberland
ned
saga
spiral
appreciated
collaborative
treating
similarities
feminine
finishes
##ib
jade
import
##hot
champagne
mice
securing
celebrities
helsinki
attributes
##gos
cousins
phases
ache
lucia
gandhi
submission
vicar
spear
shine
tasmania
biting
detention
constitute
tighter
seasonal
##gus
terrestrial
matthews
effectiveness
parody
philharmonic
##onic
1816
strangers
encoded
consortium
guaranteed
regards
shifts
tortured
collision
supervisor
inform
broader
insight
theaters
armour
emeritus
blink
incorporates
mapping
handball
flexible
##nta
substantially
generous
thief
carr
loses
1793
prose
ucla
romeo
generic
metallic
realization
damages
commissioners
zach
default
helicopters
lengthy
stems
partnered
spectators
rogue
indication
penalties
teresa
1801
sen
##tric
dalton
##wich
irving
photographic
##vey
deaf
peters
excluded
unsure
##vable
patterson
crawled
##zio
resided
whipped
latvia
slower
ecole
pipes
employers
maharashtra
comparable
textile
pageant
##gel
alphabet
binary
irrigation
chartered
choked
antoine
offs
waking
supplement
quantities
demolition
regain
locate
urdu
folks
scary
andreas
whites
##ava
classrooms
mw
aesthetic
publishes
valleys
guides
cubs
johannes
bryant
conventions
affecting
##itt
drain
awesome
isolation
prosecutor
ambitious
apology
captive
downs
atmospheric
lorenzo
aisle
beef
foul
##onia
kidding
composite
disturbed
illusion
natives
##ffer
rockets
riverside
wartime
painters
adolf
melted
uncertainty
simulation
hawks
progressed
meantime
builder
spray
breach
unhappy
regina
russians
determining
tram
1806
##quin
aging
1823
garion
rented
mister
diaz
terminated
clip
1817
depend
nervously
disco
owe
defenders
shiva
notorious
disbelief
shiny
worcester
##gation
##yr
trailing
undertook
islander
belarus
limitations
watershed
fuller
overlooking
utilized
raphael
1819
synthetic
breakdown
klein
##nate
moaned
memoir
lamb
practicing
##erly
cellular
arrows
exotic
witches
charted
rey
hut
hierarchy
subdivision
freshwater
giuseppe
aloud
reyes
qatar
marty
sideways
utterly
sexually
jude
prayers
mccarthy
softball
blend
damien
##gging
##metric
wholly
erupted
lebanese
negro
revenues
tasted
comparative
teamed
transaction
labeled
maori
sovereignty
parkway
trauma
gran
malay
advancement
descendant
buzz
salvation
inventory
symbolic
##making
antarctica
mps
##bro
mohammed
myanmar
holt
submarines
tones
##lman
locker
patriarch
bangkok
emerson
remarks
predators
kin
afghan
confession
norwich
rental
emerge
advantages
##zel
rca
##hold
shortened
storms
aidan
##matic
autonomy
compliance
##quet
dudley
##osis
1803
motto
documentation
summary
professors
spectacular
christina
archdiocese
flashing
innocence
remake
##dell
psychic
reef
scare
employ
sticks
meg
gus
leans
accompany
bergen
tomas
doom
wages
pools
##bes
breasts
scholarly
alison
outline
brittany
breakthrough
willis
realistic
##cut
##boro
competitor
##stan
pike
picnic
designing
commercials
washing
villain
skiing
costumes
auburn
halted
executives
logistics
cycles
vowel
applicable
barrett
exclaimed
eurovision
eternity
ramon
##umi
modifications
sweeping
disgust
torch
aviv
ensuring
rude
dusty
sonic
donovan
outskirts
cu
pathway
##band
##gun
disciplines
acids
cadet
paired
sketches
##sive
marriages
folding
peers
slovak
implies
admired
##beck
1880s
leopold
instinct
attained
weston
megan
horace
##ination
dorsal
ingredients
evolutionary
complications
deity
lethal
brushing
levy
deserted
institutes
posthumously
delivering
telescope
coronation
motivated
rapids
luc
flicked
pays
volcano
tanner
weighed
##nica
crowds
frankie
gifted
addressing
granddaughter
winding
##rna
constantine
gomez
##front
landscapes
rudolf
anthropology
slate
werewolf
astronomy
circa
rouge
dreaming
sack
knelt
drowned
naomi
prolific
tracked
freezing
herb
agony
randall
twisting
wendy
deposit
touches
vein
wheeler
##bbled
batted
retaining
tire
presently
compare
specification
daemon
nigel
##grave
merry
recommendation
czechoslovakia
sandra
roma
##sts
lambert
inheritance
sheikh
winchester
cries
examining
##yle
comeback
cuisine
nave
##iv
retrieve
tomatoes
barker
polished
defining
irene
lantern
personalities
begging
tract
swore
1809
##gic
omaha
brotherhood
haiti
##ots
exeter
##ete
##zia
steele
dumb
pearson
surveyed
elisabeth
trends
fritz
bugs
fraction
calmly
viking
##birds
tug
inserted
unusually
##ield
confronted
distress
crashing
brent
turks
resign
##olo
cambodia
gabe
sauce
##kal
evelyn
extant
clusters
quarry
teenagers
luna
##lers
##ister
affiliation
drill
##ashi
panthers
scenic
libya
anita
strengthen
inscriptions
##cated
lace
sued
judith
riots
##uted
mint
##eta
preparations
midst
dub
challenger
##vich
mock
displaced
wicket
breaths
enables
schmidt
analyst
##lum
highlight
automotive
axe
josef
newark
sufficiently
resembles
50th
##pal
flushed
mum
traits
##ante
commodore
incomplete
warming
titular
ceremonial
ethical
celebrating
eighteenth
cao
lima
medalist
mobility
strips
snakes
miniature
zagreb
barton
escapes
umbrella
automated
doubted
differs
cooled
georgetown
dresden
cooked
fade
wyatt
jacobs
carlton
abundant
stereo
madras
inning
spur
malayalam
begged
osaka
groan
escaping
charging
dose
##aj
bud
papa
communists
advocates
edged
tri
resemble
peaking
necklace
fried
montenegro
saxony
goose
glances
stuttgart
curator
recruit
grocery
sympathetic
##tting
##fort
lotus
randolph
ancestor
##rand
succeeding
jupiter
1798
macedonian
##heads
hiking
1808
handing
fischer
##itive
garbage
##pies
prone
singular
papua
inclined
attractions
italia
pouring
motioned
grandma
garnered
jacksonville
corp
ego
ringing
aluminum
##hausen
ordering
##foot
drawer
traders
synagogue
##kawa
resistant
wandering
fragile
fiona
teased
hardcore
soaked
jubilee
decisive
exposition
mercer
poster
valencia
hale
kuwait
1811
##ises
##wr
##eed
tavern
gamma
johan
##uer
airways
amino
gil
vocational
domains
torres
generator
folklore
outcomes
##keeper
canberra
shooter
fl
beams
confrontation
##gram
aligned
forestry
pipeline
jax
motorway
conception
decay
coffin
##cott
stalin
1805
escorted
minded
##nam
sitcom
purchasing
twilight
veronica
additions
passive
tensions
straw
frequencies
1804
refugee
cultivation
##iate
christie
clary
bulletin
crept
disposal
##rich
##zong
processor
crescent
##rol
emphasized
whale
nazis
aurora
dwelling
hauled
sponsors
toledo
ideology
theatres
tessa
cerambycidae
saves
turtle
cone
suspects
kara
rusty
yelling
greeks
mozart
shades
cocked
participant
shire
spit
freeze
necessity
##cos
inmates
nielsen
councillors
loaned
uncommon
omar
peasants
botanical
offspring
daniels
formations
jokes
1794
pioneers
sigma
licensing
##sus
wheelchair
polite
1807
liquor
pratt
trustee
##uta
forewings
balloon
kilometre
camping
explicit
casually
shawn
foolish
teammates
nm
hassan
carrie
judged
satisfy
vanessa
knives
selective
flowed
##lice
stressed
eliza
mathematician
cease
cultivated
##roy
commissions
browns
##ania
destroyers
sheridan
meadow
##rius
minerals
##cial
downstream
clash
gram
memoirs
ventures
baha
seymour
archie
midlands
edith
fare
flynn
invite
canceled
tiles
stabbed
boulder
incorporate
amended
camden
facial
mollusk
unreleased
descriptions
grabs
raises
ramp
shiver
##rose
coined
pioneering
tunes
qing
warwick
tops
melanie
giles
##rous
wandered
##inal
annexed
30th
unnamed
##ished
organizational
airplane
normandy
stoke
whistle
blessing
violations
chased
holders
shotgun
##ctic
reactor
##vik
tires
tearing
shores
fortified
mascot
constituencies
columnist
productive
tibet
##rta
lineage
hooked
tapes
judging
cody
##gger
hansen
kashmir
triggered
##eva
solved
cliffs
##tree
resisted
anatomy
protesters
transparent
implied
##iga
injection
mattress
excluding
##mbo
defenses
helpless
devotion
##elli
growl
liberals
weber
phenomena
atoms
plug
##iff
mortality
apprentice
howe
convincing
swimmer
barber
leone
promptly
sodium
def
nowadays
arise
##oning
gloucester
corrected
dignity
norm
erie
##ders
elders
evacuated
compression
##yar
hartford
backpack
reasoning
accepts
24th
wipe
millimetres
marcel
##oda
dodgers
albion
1790
overwhelmed
aerospace
oaks
1795
showcase
acknowledge
recovering
nolan
ashe
hurts
geology
fashioned
disappearance
farewell
swollen
shrug
marquis
wimbledon
rue
1792
commemorate
reduces
experiencing
inevitable
calcutta
##court
murderer
sticking
fisheries
imagery
bloom
##inus
gustav
hesitation
memorable
viral
beans
accidents
tunisia
antenna
spilled
consort
treatments
aye
perimeter
##gard
donation
hostage
migrated
banker
addiction
apex
lil
trout
##ously
conscience
##nova
rams
sands
genome
passionate
troubles
##lets
amid
##ibility
##ret
higgins
exceed
vikings
##vie
payne
##zan
muscular
defendant
sucking
##wal
ibrahim
fuselage
claudia
vfl
europeans
snails
interval
##garh
preparatory
statewide
tasked
lacrosse
viktor
##lation
angola
##hra
flint
implications
employs
teens
patrons
stall
weekends
barriers
scrambled
nucleus
tehran
jenna
parsons
lifelong
robots
displacement
##bles
precipitation
knuckles
clutched
1802
marrying
ecology
marx
accusations
declare
scars
kolkata
mat
meadows
bermuda
skeleton
finalists
vintage
crawl
coordinate
affects
subjected
orchestral
mistaken
mirrors
dipped
relied
arches
candle
##nick
incorporating
wildly
fond
basilica
owl
fringe
rituals
whispering
stirred
feud
tertiary
slick
goat
honorable
whereby
ricardo
stripes
parachute
adjoining
submerged
synthesizer
##gren
intend
positively
ninety
phi
beaver
partition
fellows
alexis
prohibition
carlisle
bizarre
fraternity
doubts
icy
aquatic
sneak
sonny
combines
airports
crude
supervised
spatial
merge
alfonso
##bic
corrupt
scan
undergo
##ams
disabilities
colombian
comparing
dolphins
perkins
reprinted
unanimous
bounced
hairs
underworld
midwest
semester
bucket
paperback
miniseries
coventry
demise
##leigh
demonstrations
sensor
rotating
yan
##hler
arrange
soils
##idge
hyderabad
labs
brakes
grandchildren
##nde
negotiated
rover
ferrari
continuation
directorate
augusta
stevenson
counterpart
gore
##rda
nursery
rican
ave
collectively
broadly
pastoral
repertoire
asserted
discovering
nordic
styled
fiba
cunningham
harley
middlesex
survives
tumor
tempo
zack
aiming
lok
urgent
##nto
devils
contractor
turin
##wl
bliss
repaired
simmons
moan
astronomical
negotiate
lyric
1890s
lara
bred
clad
angus
pbs
engineered
posed
hernandez
possessions
elbows
psychiatric
strokes
confluence
electorate
lifts
campuses
lava
alps
##ution
##date
physicist
woody
##ographic
##itis
juliet
reformation
sparhawk
complement
suppressed
jewel
##½
floated
##kas
continuity
sadly
##ische
inability
melting
scanning
paula
flour
judaism
safer
vague
solving
curb
##stown
financially
gable
bees
expired
miserable
cassidy
dominion
1789
cupped
robbery
facto
amos
warden
resume
tallest
marvin
pounded
declaring
gasoline
##aux
darkened
sophomore
##mere
erection
gossip
televised
risen
dial
##eu
pillars
passages
profound
arabian
ashton
silicon
nail
##lated
##hardt
fleming
firearms
ducked
circuits
blows
waterloo
titans
fireplace
cheshire
financed
activation
algorithms
constituent
catcher
cherokee
partnerships
sexuality
platoon
tragic
vivian
guarded
whiskey
meditation
poetic
##nga
porto
listeners
dominance
kendra
mona
chandler
factions
22nd
salisbury
attitudes
derivative
##ido
##haus
intake
paced
javier
illustrator
barrels
bias
cockpit
burnett
dreamed
ensuing
receptors
someday
hawkins
mattered
##lal
slavic
1799
jesuit
cameroon
wasted
wax
lowering
victorious
freaking
outright
hancock
librarian
sensing
bald
calcium
myers
tablet
announcing
barack
shipyard
pharmaceutical
greenwich
flush
medley
patches
wolfgang
speeches
acquiring
exams
nikolai
hayden
kannada
reilly
waitress
abdomen
devastated
capped
pseudonym
pharmacy
fulfill
paraguay
1796
clicked
##trom
archipelago
syndicated
##hman
lumber
orgasm
rejection
clifford
lorraine
advent
mafia
rodney
brock
##used
##elia
cassette
chamberlain
despair
mongolia
sensors
developmental
upstream
##alis
spanning
trombone
basque
seeded
interred
renewable
rhys
leapt
revision
molecule
##ages
chord
vicious
nord
shivered
23rd
arlington
debts
corpus
sunrise
bays
blackburn
centimetres
##uded
shuddered
strangely
gripping
cartoons
isabelle
orbital
##ppa
seals
proving
refusal
strengthened
bust
assisting
baghdad
batsman
portrayal
mara
pushes
spears
og
##cock
reside
nathaniel
brennan
1776
confirmation
caucus
##worthy
markings
yemen
nobles
ku
lazy
viewer
catalan
encompasses
sawyer
##fall
sparked
substances
patents
braves
arranger
evacuation
sergio
persuade
dover
tolerance
penguin
cum
jockey
insufficient
townships
occupying
declining
plural
processed
projection
puppet
flanders
introduces
liability
##yon
gymnastics
antwerp
hobart
candles
jeep
wes
observers
chaplain
bundle
glorious
##hine
hazel
flung
sol
excavations
dumped
stares
bangalore
triangular
icelandic
intervals
expressing
turbine
##vers
songwriting
crafts
##igo
jasmine
ditch
rite
entertaining
comply
sorrow
wrestlers
basel
emirates
marian
rivera
helpful
##some
caution
downward
networking
##atory
##tered
darted
genocide
emergence
replies
specializing
spokesman
convenient
unlocked
fading
augustine
concentrations
resemblance
elijah
investigator
andhra
##uda
promotes
##rrell
fleeing
simone
announcer
lydia
weaver
residency
modification
##fest
stretches
alternatively
nat
lowe
lacks
##ented
pam
tile
concealed
inferior
abdullah
residences
tissues
vengeance
##ided
moisture
peculiar
groove
bologna
jennings
ninja
oversaw
zombies
pumping
batch
livingston
emerald
installations
1797
peel
nitrogen
rama
##fying
schooling
strands
responding
werner
lime
casa
accurately
targeting
##rod
underway
##uru
hemisphere
lester
##yard
occupies
griffith
angrily
reorganized
##owing
courtney
deposited
estadio
##ifies
dunn
exiled
##ying
checks
##combe
successes
unexpectedly
blu
assessed
##flower
observing
sacked
spiders
kn
nodes
prosperity
audrey
divisional
broncos
tangled
adjust
feeds
erosion
paolo
surf
directory
snatched
humid
admiralty
screwed
reddish
##nese
modules
trench
lamps
bind
leah
bucks
competes
##nz
transcription
isles
violently
clutching
pga
cyclist
inflation
flats
ragged
unnecessary
##hian
stubborn
coordinated
harriet
baba
disqualified
insect
wolfe
##fies
reinforcements
rocked
duel
winked
embraced
bricks
##raj
hiatus
defeats
pending
brightly
jealousy
##xton
##uki
lena
colorful
##dley
stein
kidney
##shu
underwear
wanderers
##haw
##icus
guardians
m³
roared
habits
##wise
permits
uranium
punished
disguise
bundesliga
elise
dundee
erotic
partisan
collectors
float
individually
rendering
behavioral
bucharest
ser
hare
valerie
corporal
nutrition
proportional
immense
##kis
pavement
##zie
##eld
sutherland
crouched
1775
suzuki
trades
endurance
operas
crosby
prayed
priory
rory
socially
gujarat
walton
cube
pasha
privilege
lennon
floods
thorne
waterfall
nipple
scouting
approve
##lov
minorities
voter
dwight
extensions
assure
ballroom
slap
dripping
privileges
rejoined
confessed
demonstrating
patriotic
yell
investor
##uth
pagan
slumped
squares
confront
bert
embarrassment
aston
urging
sweater
starr
yuri
brains
williamson
commuter
mortar
structured
selfish
exports
##jon
cds
##him
unfinished
##rre
mortgage
destinations
##nagar
canoe
solitary
buchanan
delays
magistrate
fk
##pling
motivation
##lier
##vier
recruiting
assess
##mouth
malik
antique
1791
pius
rahman
reich
tub
zhou
smashed
airs
galway
xii
conditioning
honduras
discharged
dexter
##pf
lionel
debates
lemon
volunteered
dioxide
procession
devi
sic
tremendous
advertisements
colts
transferring
verdict
hanover
decommissioned
utter
relate
pac
racism
beacon
limp
similarity
terra
occurrence
ant
becky
capt
updates
armament
richie
pal
##graph
halloween
mayo
##ssen
##bone
cara
serena
fcc
dolls
obligations
##dling
violated
lafayette
jakarta
exploitation
infamous
iconic
##lah
##park
moody
reginald
dread
spill
crystals
olivier
modeled
bluff
equilibrium
separating
notices
ordnance
extinction
onset
cosmic
attachment
sammy
expose
privy
anchored
##bil
abbott
admits
bending
baritone
emmanuel
policeman
vaughan
winged
climax
dresses
denny
polytechnic
mohamed
burmese
authentic
nikki
genetics
grandparents
homestead
gaza
postponed
metacritic
una
##sby
unstable
dissertation
##cian
curls
obscure
uncovered
bronx
praying
disappearing
##hoe
prehistoric
coke
turret
mutations
nonprofit
pits
monaco
##usion
prominently
dispatched
podium
##mir
uci
##uation
fortifications
birthplace
kendall
##lby
##oll
preacher
rack
goodman
persistent
##ott
countless
jaime
recorder
lexington
persecution
jumps
renewal
wagons
crushing
##holder
decorations
##lake
abundance
wrath
laundry
£1
garde
jeanne
beetles
peasant
splitting
caste
sergei
##rer
##ema
scripts
##ively
rub
satellites
##vor
inscribed
verlag
scrapped
gale
packages
chick
potato
slogan
kathleen
arabs
##culture
counterparts
reminiscent
choral
##tead
rand
retains
bushes
dane
accomplish
courtesy
closes
##oth
slaughter
hague
krakow
lawson
tailed
elias
ginger
##ttes
canopy
betrayal
rebuilding
turf
##hof
frowning
allegiance
brigades
kicks
rebuild
polls
alias
nationalism
rowan
audition
bowie
fortunately
recognizes
harp
dillon
horrified
##oro
renault
ropes
presumed
rewarded
infrared
wiping
accelerated
illustration
presses
practitioners
badminton
##iard
detained
##tera
recognizing
relates
misery
##sies
##tly
reproduction
piercing
potatoes
thornton
esther
manners
hbo
##aan
ours
bullshit
ernie
perennial
sensitivity
illuminated
rupert
##iss
rfc
nassau
##dock
staggered
socialism
##haven
appointments
nonsense
prestige
sharma
haul
solidarity
##rata
igor
pedestrian
##uit
baxter
tenants
wires
medication
unlimited
guiding
impacts
diabetes
##rama
sasha
pas
clive
extraction
continually
constraints
##bilities
sonata
hunted
sixteenth
chu
planting
quote
mayer
pretended
spat
ceramic
##cci
curtains
pigs
pitching
##dad
latvian
sore
dayton
##sted
patrols
slice
playground
##nted
shone
stool
apparatus
inadequate
mates
treason
##ija
desires
##liga
##croft
somalia
laurent
mir
grape
obliged
chevrolet
thirteenth
stunning
enthusiastic
##ede
accounted
concludes
currents
basil
##kovic
drought
##rica
mai
##aire
shove
posting
##shed
pilgrimage
humorous
packing
fry
pencil
wines
smells
marilyn
aching
newest
clung
bon
neighbours
sanctioned
##pie
mug
##stock
drowning
hydraulic
##vil
hiring
reminder
lilly
investigators
##ncies
sour
##eous
compulsory
packet
##rion
##graphic
##elle
cannes
##inate
depressed
##rit
heroic
importantly
theresa
##tled
conway
saturn
marginal
rae
##xia
corresponds
royce
pact
jasper
explosives
packaging
aluminium
##ttered
denotes
rhythmic
spans
assignments
hereditary
outlined
originating
sundays
lad
reissued
greeting
beatrice
##dic
pillar
marcos
plots
handbook
alcoholic
judiciary
avant
slides
extract
masculine
blur
##eum
homage
trembled
owens
hymn
trey
signaling
socks
accumulated
reacted
attic
theo
lining
angie
distraction
primera
talbot
creativity
billed
##hey
deacon
eduardo
identifies
proposition
dizzy
gunner
hogan
##yam
##pping
##hol
ja
##chan
jensen
reconstructed
##berger
clearance
darius
##nier
abe
harlem
plea
dei
circled
emotionally
notation
fascist
neville
exceeded
upwards
viable
ducks
workforce
racer
limiting
shri
##lson
possesses
kerr
moths
devastating
laden
disturbing
locking
gal
fearing
accreditation
flavor
aide
1870s
mountainous
##baum
melt
##ures
texture
servers
soda
herd
##nium
erect
puzzled
hum
peggy
examinations
gould
testified
geoff
ren
devised
sacks
##law
denial
posters
grunted
cesar
tutor
gerry
offerings
byrne
falcons
combinations
incoming
pardon
rocking
26th
avengers
flared
mankind
seller
uttar
loch
nadia
stroking
exposing
fertile
ancestral
instituted
##has
noises
prophecy
taxation
eminent
vivid
pol
##bol
dart
indirect
multimedia
notebook
upside
displaying
adrenaline
referenced
geometric
##iving
progression
##ddy
blunt
announce
##far
implementing
##lav
aggression
liaison
cooler
cares
headache
plantations
gorge
dots
impulse
thickness
ashamed
averaging
kathy
obligation
precursor
fowler
symmetry
thee
hears
##rai
undergoing
butcher
bowler
##lip
cigarettes
subscription
goodness
##ically
browne
##hos
kyoto
donor
##erty
damaging
friction
drifting
expeditions
hardened
prostitution
fauna
blankets
claw
tossing
snarled
butterflies
recruits
investigative
coated
healed
communal
hai
xiii
academics
boone
psychologist
restless
lahore
stephens
brendan
foreigners
printer
ached
explode
27th
deed
scratched
dared
##pole
cardiac
1780
okinawa
proto
commando
compelled
oddly
electrons
replica
thanksgiving
##rist
sheila
deliberate
stafford
tidal
representations
hercules
ou
##path
##iated
kidnapping
lenses
##tling
deficit
samoa
mouths
consuming
computational
maze
granting
smirk
razor
fixture
ideals
inviting
aiden
nominal
issuing
julio
pitt
ramsey
docks
##oss
exhaust
##owed
bavarian
draped
anterior
mating
ethiopian
explores
noticing
##nton
discarded
convenience
hoffman
endowment
beasts
cartridge
mormon
paternal
probe
sleeves
interfere
lump
deadline
jenks
bulldogs
scrap
alternating
justified
reproductive
nam
seize
descending
secretariat
kirby
grouped
smash
panther
sedan
tapping
lola
cheer
germanic
unfortunate
##eter
unrelated
##fan
subordinate
##sdale
suzanne
advertisement
##ility
horsepower
##lda
cautiously
discourse
luigi
##mans
##fields
noun
prevalent
mao
schneider
everett
surround
governorate
kira
##avia
westward
##take
misty
rails
sustainability
unused
##rating
packs
toast
unwilling
regulate
thy
suffrage
nile
awe
assam
definitions
travelers
affordable
##rb
conferred
sells
undefeated
beneficial
torso
basal
repeating
remixes
bahrain
cables
fang
##itated
excavated
numbering
statutory
deluxe
##lian
forested
ramirez
derbyshire
zeus
slamming
transfers
astronomer
banana
lottery
berg
histories
bamboo
##uchi
resurrection
posterior
bowls
vaguely
##thi
thou
preserving
tensed
offence
##inas
meyrick
callum
ridden
watt
langdon
tying
lowland
snorted
daring
truman
##hale
##girl
aura
overly
filing
weighing
goa
infections
philanthropist
saunders
eponymous
##owski
latitude
perspectives
reviewing
mets
commandant
radial
##kha
flashlight
reliability
koch
vowels
amazed
ada
elaine
supper
##encies
predator
debated
soviets
cola
##boards
##nah
compartment
crooked
arbitrary
fourteenth
havana
majors
steelers
clips
profitable
ambush
exited
packers
##tile
nude
cracks
fungi
limb
trousers
josie
shelby
tens
frederic
##ος
definite
smoothly
constellation
insult
baton
discs
lingering
##nco
conclusions
lent
staging
becker
grandpa
shaky
##tron
einstein
obstacles
adverse
economically
##moto
mccartney
thor
dismissal
motions
readings
nostrils
treatise
##pace
squeezing
evidently
prolonged
1783
venezuelan
je
marguerite
beirut
takeover
shareholders
##vent
denise
digit
airplay
norse
##bbling
imaginary
pills
hubert
blaze
vacated
eliminating
vine
mansfield
retrospective
barrow
borne
clutch
bail
forensic
weaving
##nett
##witz
desktop
citadel
promotions
worrying
dorset
subdivided
##iating
manned
expeditionary
pickup
synod
chuckle
barney
##rz
##ffin
functionality
karachi
litigation
meanings
lick
anders
##ffed
execute
curl
oppose
ankles
typhoon
##ache
linguistics
compassion
pressures
grazing
perfection
##iting
immunity
monopoly
muddy
backgrounds
namibia
francesca
monitors
attracting
stunt
tuition
##ии
vegetable
##mates
##quent
mgm
jen
complexes
forts
cellar
bites
seventeenth
royals
flemish
failures
mast
charities
##cular
peruvian
capitals
macmillan
ipswich
outward
frigate
postgraduate
folds
employing
##ouse
concurrently
fiery
##tai
contingent
nightmares
monumental
nicaragua
##kowski
lizard
mal
fielding
gig
reject
harding
##ipe
coastline
##cin
beethoven
humphrey
innovations
##tam
norris
doris
solicitor
obey
niagara
shelves
bourbon
nightclub
specifications
hilton
##ndo
centennial
dispersed
worm
neglected
briggs
kuala
uneasy
##nstein
##bound
##aking
##burgh
awaiting
pronunciation
##bbed
##quest
eh
optimal
zhu
raped
greens
presided
brenda
worries
venetian
marxist
turnout
##lius
refined
braced
sins
grasped
sunderland
nickel
speculated
lowell
cyrillic
communism
fundraising
resembling
colonists
mutant
freddie
usc
##mos
gratitude
##run
mural
##lous
chemist
reminds
28th
steals
tess
pietro
##ingen
promoter
ri
microphone
honoured
rai
sant
##qui
feather
##nson
burlington
kurdish
terrorists
deborah
sickness
##wed
hazard
irritated
desperation
veil
clarity
##rik
jewels
xv
##gged
##ows
##cup
berkshire
unfair
mysteries
orchid
winced
exhaustion
renovations
stranded
obe
infinity
##nies
adapt
redevelopment
thanked
registry
olga
domingo
noir
tudor
ole
commenting
behaviors
##ais
crisp
pauline
probable
stirling
wigan
paralympics
panting
surpassed
##rew
luca
barred
famed
##sters
cassandra
waiter
carolyn
exported
##orted
andres
destructive
deeds
jonah
castles
vacancy
##glass
1788
orchard
yep
famine
belarusian
sprang
##forth
skinny
##mis
administrators
rotterdam
zambia
zhao
boiler
discoveries
##ride
##physics
lucius
disappointing
outreach
spoon
##frame
qualifications
unanimously
enjoys
regency
##iidae
stade
realism
veterinary
rodgers
dump
alain
chestnut
castile
censorship
rumble
gibbs
communion
reggae
inactivated
logs
loads
##houses
homosexual
##iano
ale
informs
##cas
phrases
plaster
linebacker
ambrose
kaiser
fascinated
limerick
recruitment
forge
mastered
##nding
leinster
rooted
threaten
##strom
borneo
##hes
suggestions
scholarships
propeller
documentaries
patronage
coats
constructing
invest
neurons
comet
entirety
shouts
identities
annoying
unchanged
wary
##antly
##ogy
neat
oversight
##kos
phillies
replay
constance
##kka
incarnation
humble
skies
minus
##acy
smithsonian
guerrilla
jar
cadets
##plate
surplus
audit
##aru
cracking
joanna
louisa
pacing
##lights
intentionally
##iri
diner
nwa
imprint
australians
tong
unprecedented
bunker
naive
specialists
ark
nichols
railing
leaked
pedal
##uka
shrub
longing
roofs
captains
neural
tuned
##ntal
##jet
emission
medina
frantic
codex
definitive
sid
abolition
intensified
stocks
enrique
sustain
genoa
oxide
##written
clues
cha
##gers
tributaries
fragment
venom
##ente
##sca
muffled
vain
sire
laos
##ingly
##hana
hastily
snapping
surfaced
sentiment
motive
##oft
contests
approximate
mesa
luckily
dinosaur
exchanges
propelled
accord
bourne
relieve
tow
masks
offended
##ues
cynthia
##mmer
rains
bartender
zinc
reviewers
lois
##sai
legged
arrogant
rafe
comprise
handicap
blockade
inlet
lagoon
copied
drilling
shelley
petals
##inian
mandarin
obsolete
##inated
onward
arguably
productivity
praising
seldom
busch
discusses
raleigh
shortage
ranged
stanton
encouragement
firstly
conceded
overs
temporal
##uke
cbe
##bos
woo
certainty
pumps
##pton
stalked
##uli
lizzie
periodic
thieves
weaker
gases
shoving
chooses
wc
##chemical
prompting
weights
##kill
robust
flanked
sticky
tuberculosis
##eb
##eal
christchurch
resembled
wallet
reese
inappropriate
pictured
distract
fixing
fiddle
giggled
burger
heirs
hairy
mechanic
torque
obsessed
chiefly
cheng
logging
extracted
meaningful
numb
##vsky
gloucestershire
reminding
unite
##lit
breeds
diminished
clown
glove
1860s
archibald
focal
freelance
sliced
depiction
##yk
organism
switches
sights
stray
crawling
##ril
lever
leningrad
interpretations
loops
anytime
reel
alicia
delighted
##ech
inhaled
xiv
suitcase
bernie
vega
licenses
northampton
exclusion
induction
monasteries
racecourse
homosexuality
##sfield
##rky
dimitri
michele
alternatives
ions
commentators
genuinely
objected
pork
hospitality
fencing
stephan
warships
peripheral
wit
drunken
wrinkled
quentin
spends
departing
chung
numerical
spokesperson
johannesburg
caliber
killers
##udge
assumes
neatly
demographic
abigail
bloc
mounting
##lain
bentley
slightest
xu
recipients
##jk
merlin
##writer
seniors
prisons
blinking
hindwings
flickered
kappa
##hel
80s
strengthening
appealing
brewing
gypsy
mali
lashes
hulk
unpleasant
harassment
bio
treaties
predict
instrumentation
pulp
troupe
boiling
mantle
##ffe
##vn
dividing
handles
verbs
##onal
coconut
senegal
thorough
gum
momentarily
##sto
cocaine
panicked
destined
##turing
teatro
denying
weary
captained
mans
##hawks
wakefield
bollywood
thankfully
cyril
amendments
##bahn
consultation
stud
reflections
kindness
1787
internally
##ovo
tex
mosaic
distribute
paddy
seeming
##hic
piers
##mura
popularly
winger
kang
sentinel
mccoy
##anza
covenant
##bag
verge
fireworks
suppress
thrilled
dominate
##jar
swansea
reconciliation
stiffened
cue
dorian
##uf
damascus
amor
ida
foremost
##aga
porsche
unseen
dir
##had
##azi
stony
lexi
melodies
##nko
angular
integer
podcast
ants
inherent
jaws
justify
persona
##olved
josephine
##nr
##ressed
customary
flashes
gala
cyrus
glaring
backyard
ariel
physiology
greenland
stir
avon
atletico
finch
methodology
ked
mas
catholicism
townsend
branding
quincy
fits
containers
1777
ashore
aragon
forearm
poisoning
adopting
conquer
grinding
amnesty
keller
finances
evaluate
forged
lankan
instincts
##uto
guam
bosnian
photographed
workplace
desirable
protector
allocation
intently
encourages
willy
##sten
bodyguard
electro
brighter
bihar
##chev
lasts
opener
amphibious
sal
verde
arte
##cope
captivity
vocabulary
yields
##tted
agreeing
desmond
pioneered
##chus
strap
campaigned
railroads
##ович
emblem
##dre
stormed
##ulous
marijuana
northumberland
##nath
bowen
landmarks
beaumont
##qua
danube
##bler
attorneys
th
flyers
critique
villains
cass
mutation
acc
##0s
colombo
mckay
motif
sampling
concluding
syndicate
##rell
neon
stables
warnings
clint
mourning
wilkinson
##tated
merrill
leopard
evenings
exhaled
emil
sonia
ezra
discrete
stove
farrell
fifteenth
prescribed
superhero
##rier
worms
helm
wren
##duction
expo
##rator
hq
unfamiliar
antony
prevents
acceleration
fiercely
mari
painfully
calculations
cheaper
ign
clifton
irvine
davenport
mozambique
pierced
##evich
wonders
##wig
##cate
##iling
crusade
ware
enzymes
reasonably
mls
##coe
mater
ambition
bunny
eliot
kernel
##fin
asphalt
headmaster
torah
aden
lush
pins
waived
##yas
joao
substrate
enforce
##grad
##ules
alvarez
selections
epidemic
tempted
bremen
translates
ensured
waterfront
29th
forrest
manny
malone
kramer
reigning
simpler
absorption
engraved
##ffy
evaluated
1778
haze
comforting
crossover
##abe
thorn
##rift
##imo
suppression
fatigue
cutter
wurttemberg
##orf
enforced
hovering
proprietary
samurai
syllable
ascent
lacey
tick
lars
tractor
merchandise
rep
bouncing
defendants
##yre
huntington
##oko
standardized
##hor
##hima
assassinated
predecessors
rainy
liar
assurance
lyrical
##uga
secondly
flattened
parameter
undercover
##mity
bordeaux
punish
ridges
markers
exodus
inactive
hesitate
debbie
nyc
pledge
savoy
nagar
offset
organist
##tium
hesse
marin
converting
##iver
diagram
propulsion
validity
reverted
supportive
ministries
clans
responds
proclamation
##inae
ein
pleading
patriot
birch
islanders
strauss
hates
##dh
brandenburg
concession
1900s
killings
textbook
antiquity
cinematography
wharf
embarrassing
setup
creed
farmland
inequality
centred
signatures
fallon
##ingham
##uts
ceylon
gazing
directive
laurie
##tern
globally
##uated
##dent
allah
excavation
threads
##cross
frantically
icc
utilize
determines
respiratory
thoughtful
receptions
##dicate
merging
chandra
seine
builders
builds
diagnostic
dev
visibility
goddamn
analyses
dhaka
proves
chancel
concurrent
curiously
canadians
pumped
restoring
1850s
turtles
jaguar
sinister
spinal
declan
vows
1784
glowed
capitalism
swirling
universidad
##lder
##oat
soloist
##genic
##oor
coincidence
beginnings
nissan
dip
resorts
caucasus
combustion
infectious
##eno
pigeon
serpent
##itating
conclude
masked
salad
jew
##gr
surreal
toni
##wc
harmonica
##gins
##etic
##coat
fishermen
intending
bravery
##wave
klaus
titan
wembley
taiwanese
ransom
40th
incorrect
hussein
eyelids
cooke
dramas
utilities
##etta
##print
eisenhower
principally
granada
lana
##rak
openings
concord
##bl
bethany
connie
morality
sega
##mons
##nard
earnings
##kara
##cine
communes
##rel
coma
composing
softened
severed
grapes
nguyen
analyzed
warlord
hubbard
heavenly
behave
slovenian
##hit
##ony
hailed
filmmakers
trance
caldwell
skye
unrest
coward
likelihood
##aging
bern
taliban
honolulu
propose
browser
imagining
cobra
contributes
dukes
instinctively
conan
violinist
##ores
accessories
gradual
##amp
quotes
sioux
##dating
undertake
intercepted
sparkling
compressed
fungus
tombs
haley
imposing
rests
degradation
lincolnshire
retailers
wetlands
tulsa
distributor
dungeon
nun
greenhouse
convey
atlantis
aft
exits
oman
dresser
lyons
##sti
joking
eddy
judgement
omitted
digits
##game
juniors
##rae
cents
stricken
une
##ngo
wizards
weir
breton
nan
technician
fibers
liking
royalty
persia
terribly
magician
##rable
##unt
vance
cafeteria
booker
camille
warmer
##static
consume
cavern
gaps
compass
contemporaries
foyer
soothing
graveyard
maj
plunged
blush
##wear
cascade
demonstrates
ordinance
##nov
boyle
##lana
rockefeller
shaken
banjo
izzy
##ense
breathless
vines
##eman
alterations
chromosome
dwellings
feudal
mole
catalonia
relics
tenant
mandated
##fm
fridge
hats
honesty
patented
raul
heap
cruisers
accusing
enlightenment
infants
wherein
chatham
contractors
affinity
hc
osborne
piston
traps
maturity
##rana
lagos
##zal
peering
##nay
attendant
dealers
protocols
subset
prospects
biographical
##cre
artery
##zers
insignia
nuns
endured
##eration
recommend
schwartz
serbs
berger
cromwell
crossroads
enduring
clasped
grounded
##bine
marseille
twitched
abel
choke
catalyst
moldova
italians
##tist
disastrous
wee
##oured
##nti
wwf
nope
##piration
##asa
expresses
thumbs
##nza
coca
1781
cheating
##ption
skipped
sensory
heidelberg
spies
satan
dangers
semifinal
bohemia
whitish
confusing
shipbuilding
relies
surgeons
landings
ravi
baku
moor
suffix
alejandro
##yana
litre
upheld
##unk
rajasthan
##rek
coaster
insists
posture
scenarios
etienne
favoured
appoint
transgender
elephants
poked
greenwood
defences
fulfilled
militant
somali
1758
chalk
potent
##ucci
migrants
wink
assistants
nos
restriction
activism
niger
##ario
colon
shaun
##sat
daphne
##erated
swam
congregations
reprise
considerations
magnet
playable
xvi
overthrow
tobias
knob
chavez
coding
##mers
propped
katrina
orient
newcomer
##suke
temperate
##pool
farmhouse
interrogation
committing
##vert
forthcoming
strawberry
joaquin
macau
ponds
shocking
siberia
##cellular
chant
contributors
##nant
##ologists
sped
absorb
hail
1782
spared
##hore
barbados
karate
opus
originates
saul
##xie
evergreen
leaped
##rock
correlation
exaggerated
weekday
unification
bump
tracing
brig
afb
pathways
utilizing
disturbance
kneeling
##stad
##guchi
100th
pune
##thy
decreasing
manipulation
miriam
academia
ecosystem
occupational
rbi
##lem
rift
rotary
stacked
incorporation
awakening
generators
guerrero
racist
##omy
cyber
derivatives
culminated
allie
annals
panzer
sainte
pops
zu
austro
##vate
algerian
politely
nicholson
mornings
educate
tastes
thrill
dartmouth
##gating
##jee
regan
differing
concentrating
choreography
divinity
pledged
alexandre
routing
gregor
madeline
##idal
apocalypse
##hora
gunfire
culminating
elves
fined
liang
lam
programmed
tar
guessing
transparency
gabrielle
##gna
cancellation
flexibility
##lining
accession
shea
stronghold
nets
specializes
##rgan
abused
hasan
sgt
exceeding
admiration
supermarket
photographers
specialised
tilt
resonance
hmm
perfume
sami
threatens
garland
botany
guarding
boiled
greet
puppy
russo
supplier
wilmington
vibrant
vijay
##bius
paralympic
grumbled
paige
faa
licking
margins
hurricanes
##gong
fest
grenade
ripping
##uz
counseling
weigh
##sian
needles
wiltshire
edison
costly
##not
fulton
tramway
redesigned
staffordshire
gasping
watkins
sleepy
candidacy
monkeys
timeline
throbbing
##bid
##sos
berth
uzbekistan
vanderbilt
bothering
overturned
ballots
gem
##iger
sunglasses
subscribers
hooker
compelling
ang
exceptionally
saloon
stab
##rdi
carla
terrifying
##vision
coil
##oids
satisfying
vendors
31st
mackay
deities
overlooked
ambient
bahamas
felipe
olympia
whirled
botanist
advertised
tugging
disciples
morales
unionist
rites
foley
morse
motives
creepy
##₀
soo
##sz
bargain
highness
frightening
turnpike
tory
reorganization
depict
biographer
unopposed
manifesto
##gles
institut
emile
accidental
kapoor
##dam
kilkenny
cortex
lively
romanesque
jain
shan
cannons
##ske
petrol
echoing
amalgamated
disappears
cautious
proposes
sanctions
trenton
flotilla
aus
contempt
tor
canary
cote
theirs
##hun
conceptual
deleted
fascinating
paso
blazing
elf
honourable
hutchinson
##eiro
##outh
##zin
surveyor
amidst
wooded
reissue
intro
##ono
cobb
shelters
newsletter
hanson
brace
encoding
confiscated
dem
caravan
marino
scroll
melodic
cows
imam
##adi
##aneous
northward
searches
biodiversity
cora
roaring
##bers
connell
theologian
halo
compose
pathetic
unmarried
dynamo
az
calculation
toulouse
deserves
humour
nr
forgiveness
tam
undergone
martyr
pamela
myths
whore
counselor
hicks
heavens
battleship
electromagnetic
stellar
establishments
presley
hopped
##chin
temptation
90s
wills
##yuan
nhs
##nya
seminars
##yev
adaptations
gong
asher
lex
indicator
sikh
tobago
cites
goin
##yte
satirical
##gies
characterised
correspond
bubbles
lure
participates
##vid
eruption
skate
therapeutic
1785
canals
wholesale
defaulted
sac
petit
##zzled
virgil
leak
ravens
portraying
##yx
ghetto
creators
dams
portray
vicente
##rington
fae
namesake
bounty
##arium
joachim
##ota
##iser
aforementioned
axle
snout
depended
dismantled
reuben
##ibly
gallagher
##lau
earnest
##ieu
##iary
inflicted
objections
##llar
asa
gritted
##athy
jericho
##sea
##was
flick
underside
ceramics
undead
substituted
eastward
undoubtedly
wheeled
chimney
##iche
guinness
siding
traitor
baptiste
disguised
inauguration
tipperary
choreographer
perched
warmed
stationary
##ntes
bacterial
##aurus
flores
phosphate
attacker
invaders
alvin
intersects
indirectly
immigrated
businessmen
cornelius
valves
narrated
pill
sober
nationale
monastic
applicants
scenery
##jack
motifs
constitutes
##osh
jurisdictions
tuning
irritation
woven
##uddin
fertility
gao
##erie
antagonist
impatient
glacial
hides
boarded
denominations
interception
##jas
nicola
algebraic
marquess
bahn
parole
buyers
bait
turbines
paperwork
bestowed
natasha
renee
oceans
purchases
vaccine
##tock
fixtures
playhouse
integrate
jai
oswald
intellectuals
booked
nests
mortimer
##isi
obsession
sept
##gler
##sum
scrutiny
simultaneous
squinted
##shin
collects
oven
shankar
penned
remarkably
slips
luggage
spectral
1786
collaborations
louie
consolidation
##ailed
##ivating
hoover
blackpool
harness
ignition
vest
tails
belmont
mongol
skinner
##nae
visually
mage
derry
##tism
##unce
stevie
transitional
##rdy
redskins
drying
prep
prospective
annoyance
oversee
##loaded
fills
##books
announces
scowled
respects
prasad
mystic
tucson
##vale
revue
springer
bankrupt
1772
aristotle
habsburg
##geny
dal
natal
nut
pod
chewing
darts
moroccan
walkover
rosario
lenin
punjabi
##ße
grossed
scattering
wired
invasive
hui
polynomial
corridors
wakes
gina
portrays
##cratic
arid
retreating
erich
irwin
sniper
##dha
linen
lindsey
maneuver
butch
shutting
socio
bounce
commemorative
postseason
jeremiah
pines
mystical
beads
abbas
furnace
bidding
consulted
assaulted
empirical
rubble
enclosure
sob
weakly
cancel
polly
yielded
##emann
curly
prediction
battered
70s
vhs
jacqueline
render
sails
barked
detailing
grayson
riga
sloane
raging
##yah
herbs
bravo
##athlon
alloy
giggle
imminent
suffers
assumptions
waltz
##itate
accomplishments
##ited
bathing
remixed
deception
##emia
deepest
##eis
balkan
frogs
##rong
slab
##pate
philosophers
peterborough
grains
imports
dickinson
rwanda
##atics
1774
dirk
tablets
##rove
clone
##rice
caretaker
hostilities
mclean
##gre
regimental
treasures
norms
impose
tsar
tango
diplomacy
variously
complain
recognise
arrests
1779
celestial
pulitzer
##dus
libretto
##moor
adele
splash
expectation
lds
confronts
##izer
spontaneous
harmful
wedge
entrepreneurs
buyer
bilingual
translate
rugged
conner
circulated
uae
eaton
##gra
##zzle
lingered
lockheed
vishnu
reelection
alonso
##oom
joints
yankee
headline
cooperate
heinz
laureate
invading
##sford
echoes
scandinavian
##dham
hugging
vitamin
salute
micah
hind
trader
##sper
radioactive
##ndra
militants
poisoned
ratified
remark
campeonato
deprived
wander
prop
##dong
##tani
##eye
chiang
darcy
##oping
mandolin
spice
statesman
babylon
walled
forgetting
afro
##cap
giorgio
buffer
##polis
planetary
##gis
overlap
terminals
kinda
centenary
##bir
arising
manipulate
elm
ke
1770
##tad
chrysler
mapped
moose
pomeranian
quad
macarthur
assemblies
shoreline
recalls
stratford
##rted
noticeable
##evic
imp
##rita
##sque
accustomed
supplying
tents
disgusted
sipped
filters
khz
reno
selecting
luftwaffe
mcmahon
tyne
masterpiece
carriages
collided
dunes
exercised
flare
remembers
muzzle
heck
##rson
burgess
lunged
middleton
boycott
bilateral
##sity
hazardous
lumpur
multiplayer
spotlight
jackets
goldman
liege
porcelain
rag
waterford
attracts
hopeful
battling
ottomans
kensington
baked
hymns
cheyenne
lattice
levine
borrow
polymer
clashes
michaels
monitored
commitments
denounced
##von
cavity
##oney
hobby
akin
##holders
futures
intricate
cornish
patty
##oned
illegally
dolphin
##lag
barlow
yellowish
maddie
apologized
luton
plagued
##puram
##rds
sway
fanny
łodz
##rino
psi
suspicions
hanged
##eding
initiate
charlton
##por
nak
competent
analytical
annex
wardrobe
reservations
sect
fairfax
hedge
piled
buckingham
uneven
bauer
simplicity
snyder
interpret
accountability
donors
moderately
byrd
continents
##cite
disciple
jamaican
nominees
##uss
mongolian
diver
attackers
eagerly
ideological
pillows
miracles
apartheid
revolver
sulfur
clinics
moran
##enko
ile
katy
rhetoric
##icated
chronology
recycling
##hrer
elongated
mughal
pascal
profiles
vibration
databases
domination
##fare
matthias
digest
rehearsal
polling
weiss
initiation
reeves
clinging
flourished
impress
##hoff
buckley
symposium
rhythms
weed
emphasize
transforming
##taking
##yman
accountant
analyze
flicker
foil
priesthood
voluntarily
decreases
##hya
slater
sv
charting
mcgill
##lde
moreno
besieged
zur
robes
##phic
admitting
deported
turmoil
peyton
earthquakes
##ares
nationalists
beau
clair
brethren
interrupt
welch
curated
galerie
requesting
##ested
impending
steward
viper
##vina
complaining
beautifully
brandy
foam
nl
1660
alessandro
punches
laced
explanations
##lim
attribute
clit
reggie
discomfort
##cards
smoothed
whales
##cene
adler
countered
duffy
disciplinary
widening
recipe
reliance
conducts
goats
gradient
preaching
##shaw
matilda
quasi
striped
meridian
cannabis
cordoba
certificates
##agh
##tering
graffiti
hangs
pilgrims
repeats
##ych
revive
urine
etat
##hawk
fueled
belts
fuzzy
susceptible
mauritius
salle
sincere
beers
hooks
##cki
arbitration
entrusted
advise
sniffed
seminar
junk
donnell
processors
principality
strapped
celia
mendoza
everton
fortunes
prejudice
starving
reassigned
steamer
##lund
tuck
evenly
foreman
##ffen
dans
envisioned
slit
baseman
liberia
rosemary
##weed
electrified
periodically
potassium
stride
contexts
sperm
slade
mariners
influx
bianca
subcommittee
##rane
spilling
icao
estuary
##nock
delivers
##ulata
isa
mira
bohemian
dessert
##sbury
welcoming
proudly
slowing
##chs
musee
ascension
russ
##vian
waits
##psy
africans
exploit
##morphic
eccentric
crab
peck
entrances
formidable
marketplace
groom
bolted
metabolism
patton
robbins
courier
payload
endure
##ifier
andes
refrigerator
ornate
##uca
ruthless
illegitimate
masonry
strasbourg
bikes
apples
quintet
willingly
niche
bakery
corpses
energetic
##cliffe
##sser
##ards
centimeters
centro
fuscous
cretaceous
rancho
##yde
andrei
telecom
tottenham
oasis
ordination
vulnerability
presiding
corey
penguins
sims
##pis
malawi
piss
correction
##cked
##ffle
##ryn
countdown
detectives
psychiatrist
psychedelic
dinosaurs
blouse
choi
vowed
randomly
##pol
49ers
scrub
blanche
bruins
dusseldorf
##using
unwanted
##ums
dominique
elevations
headlights
om
laguna
##oga
1750
famously
ignorance
shrewsbury
breuning
che
confederacy
greco
overhaul
##screen
paz
skirts
disagreement
cruelty
jagged
phoebe
shifter
hovered
viruses
##wes
##lined
landlord
squirrel
dashed
ornamental
gag
wally
grange
literal
spurs
undisclosed
proceeding
billie
orphan
spanned
humidity
indy
weighted
presentations
explosions
lucian
##tary
vaughn
hindus
##anga
##hell
psycho
daytona
protects
efficiently
rematch
sly
tandem
##oya
rebranded
impaired
hee
metropolis
peach
godfrey
diaspora
ethnicity
prosperous
gleaming
dar
grossing
playback
##rden
stripe
pistols
##tain
births
labelled
##cating
rudy
alba
##onne
aquarium
hostility
##tase
shudder
sumatra
hardest
lakers
consonant
creeping
demos
homicide
capsule
zeke
liberties
expulsion
pueblo
##comb
trait
transporting
##ddin
##neck
##yna
depart
gregg
mold
ledge
hangar
oldham
playboy
termination
analysts
gmbh
romero
##itic
insist
cradle
filthy
brightness
slash
shootout
deposed
bordering
##truct
microwave
tumbled
sheltered
cathy
werewolves
messy
andersen
convex
clapped
clinched
satire
wasting
edo
rufus
##jak
mont
##etti
poznan
##keeping
restructuring
transverse
##rland
azerbaijani
slovene
gestures
roommate
choking
shear
##quist
vanguard
oblivious
##hiro
disagreed
baptism
##lich
coliseum
##aceae
salvage
societe
cory
locke
relocation
relying
versailles
ahl
swelling
##elo
cheerful
##edes
gin
sarajevo
obstacle
diverted
##nac
messed
thoroughbred
fluttered
utrecht
chewed
acquaintance
assassins
dispatch
mirza
##wart
salzburg
swell
yen
##gee
idle
ligue
samson
##nds
##igh
playful
spawned
##cise
tease
##case
burgundy
stirring
skeptical
interceptions
marathi
##dies
bedrooms
aroused
pinch
##lik
preferences
tattoos
buster
digitally
projecting
rust
##ital
kitten
priorities
addison
pseudo
##guard
dusk
icons
sermon
##psis
##iba
##lift
ju
truce
rink
##dah
##wy
defects
psychiatry
offences
calculate
glucose
##iful
##rized
##unda
francaise
##hari
richest
warwickshire
carly
1763
purity
redemption
lending
##cious
muse
bruises
cerebral
aero
carving
preface
terminology
invade
monty
anarchist
blurred
##iled
rossi
treats
guts
shu
foothills
ballads
undertaking
premise
cecilia
affiliates
blasted
conditional
wilder
minors
drone
rudolph
buffy
swallowing
horton
attested
rutherford
howell
primetime
livery
penal
##bis
minimize
hydro
wrecked
wrought
palazzo
##gling
cans
vernacular
friedman
nobleman
shale
walnut
danielle
##ection
##tley
sears
##kumar
chords
lend
flipping
streamed
por
dracula
gallons
sacrifices
gamble
orphanage
##iman
mckenzie
##gible
boxers
daly
##balls
##ان
##ific
##rative
##iq
exploited
slated
##uity
circling
hillary
pinched
goldberg
provost
campaigning
piles
ironically
jong
mohan
successors
usaf
##tem
##ught
autobiographical
haute
preserves
##ending
acquitted
comparisons
hydroelectric
gangs
cypriot
torpedoes
rushes
derive
bumps
instability
fiat
pets
##mbe
silas
dye
reckless
settler
##itation
heats
##writing
canonical
maltese
fins
mushroom
stacy
aspen
avid
##kur
##loading
vickers
gaston
hillside
statutes
wilde
gail
kung
sabine
comfortably
motorcycles
##rgo
pneumonia
fetch
##sonic
axel
faintly
parallels
##oop
mclaren
spouse
compton
interdisciplinary
miner
##eni
clamped
##chal
##llah
separates
versa
##mler
scarborough
labrador
##lity
##osing
rutgers
hurdles
como
burt
divers
wichita
cade
coincided
bruised
mla
vineyard
##ili
##brush
notch
mentioning
jase
hearted
kits
doe
##acle
pomerania
##ady
ronan
seizure
pavel
problematic
##zaki
domenico
##ulin
catering
penelope
dependence
parental
emilio
ministerial
atkinson
##bolic
clarkson
chargers
colby
grill
peeked
arises
summon
##aged
fools
##grapher
faculties
qaeda
##vial
garner
refurbished
##hwa
geelong
disasters
nudged
bs
shareholder
lori
algae
reinstated
rot
##ades
##nous
invites
stainless
inclusive
##itude
diocesan
til
##icz
denomination
##xa
benton
floral
registers
##erman
##kell
absurd
brunei
guangzhou
hitter
retaliation
##uled
##eve
blanc
nh
consistency
contamination
##eres
dire
palermo
broadcasters
diaries
inspire
vols
brewer
tightening
mixtape
hormone
##tok
stokes
##color
##dly
##ssi
##ometer
##lington
sanitation
##tility
intercontinental
##adt
¹⁄₂
cylinders
economies
favourable
unison
croix
gertrude
odyssey
vanity
dangling
##logists
upgrades
dice
middleweight
practitioner
henrik
parlor
orion
angered
lac
blurted
##rri
sensual
intends
swings
angled
##phs
husky
attain
peerage
precinct
textiles
cheltenham
shuffled
dai
confess
tasting
bhutan
##riation
tyrone
segregation
abrupt
ruiz
##rish
smirked
blackwell
confidential
browning
amounted
vase
scarce
fabulous
raided
staple
guyana
unemployed
glider
shay
##tow
carmine
troll
intervene
squash
superstar
cylindrical
len
roadway
researched
handy
##rium
##jana
lao
declares
##rring
##tadt
##elin
##kova
willem
shrubs
napoleonic
realms
skater
volkswagen
##ł
tad
hara
archaeologist
awkwardly
eerie
##kind
wiley
##heimer
titus
organizers
cfl
crusaders
lama
vent
enraged
thankful
occupants
maximilian
##gaard
possessing
textbooks
##oran
collaborator
quaker
##ulo
avalanche
mono
silky
straits
isaiah
mustang
surged
resolutions
potomac
descend
kilograms
plato
strains
saturdays
##olin
bernstein
##ype
holstein
ponytail
belize
conversely
heroine
perpetual
##ylus
charcoal
piedmont
glee
negotiating
backdrop
prologue
##jah
pasadena
climbs
ramos
sunni
##holm
##tner
##tri
anand
deficiency
hertfordshire
stout
##avi
aperture
orioles
##irs
doncaster
intrigued
bombed
coating
otis
##mat
cocktail
##jit
##eto
amir
arousal
sar
##proof
dixie
pots
whereabouts
##fted
drains
bullying
cottages
scripture
coherent
fore
poe
appetite
##uration
sampled
##ators
derrick
rotor
jays
peacock
installment
##rro
advisors
##coming
rodeo
scotch
##mot
##fen
##vant
ensued
rodrigo
dictatorship
martyrs
twenties
towed
incidence
marta
rainforest
sai
scaled
##cles
oceanic
qualifiers
symphonic
mcbride
dislike
generalized
aubrey
colonization
##iation
##lion
##ssing
disliked
lublin
salesman
##ulates
spherical
whatsoever
sweating
avalon
contention
punt
severity
alderman
atari
##dina
##grant
##rop
scarf
seville
vertices
annexation
fairfield
fascination
inspiring
launches
palatinate
regretted
##rca
feral
##iom
elk
nap
[...]
